▁xxunk	0
▁xxpad	0
▁xxbos	0
▁xxeos	0
▁xxfld	0
▁xxrep	0
▁xxwrep	0
▁xxup	0
▁xxmaj	0
<unk>	0
▁the	-3.34893
.	-3.35194
,	-3.47477
s	-3.63822
▁a	-3.89541
▁and	-4.04755
▁to	-4.06077
▁of	-4.07875
'	-4.1373
br	-4.34104
▁/>	-4.36023
<	-4.40682
▁is	-4.4084
▁I	-4.49455
▁in	-4.56348
▁it	-4.59163
▁that	-4.73448
▁this	-4.78591
t	-4.84945
▁was	-4.98625
▁movie	-5.01709
ing	-5.11342
-	-5.13602
▁	-5.15477
▁for	-5.25175
▁with	-5.28716
▁film	-5.35931
▁The	-5.37615
ed	-5.41698
▁but	-5.4415
▁on	-5.44213
▁be	-5.49897
▁have	-5.52149
▁"	-5.52233
▁as	-5.53699
▁you	-5.55558
▁not	-5.58911
▁(	-5.60575
▁are	-5.63659
ly	-5.66502
"	-5.76614
▁one	-5.79099
d	-5.81241
▁like	-5.87591
▁they	-5.87732
▁his	-5.8872
▁all	-5.91186
▁he	-5.9251
▁at	-5.93146
▁so	-5.97952
▁just	-6.00419
▁an	-6.018
▁from	-6.04311
▁who	-6.04907
▁by	-6.05227
)	-6.05243
▁or	-6.06902
▁out	-6.0692
y	-6.0729
▁about	-6.09923
?	-6.17037
e	-6.18616
▁some	-6.22424
▁has	-6.25484
▁can	-6.3053
▁there	-6.31792
▁It	-6.32052
▁would	-6.33405
▁her	-6.33918
!	-6.33982
▁no	-6.34007
▁bad	-6.35606
▁good	-6.35949
n	-6.36262
▁up	-6.37395
▁if	-6.37555
m	-6.38857
▁even	-6.38926
▁more	-6.42102
▁time	-6.42738
▁what	-6.44148
▁only	-6.44323
▁make	-6.45259
▁This	-6.46009
▁get	-6.46425
▁were	-6.46766
▁had	-6.49312
▁really	-6.49657
▁me	-6.50775
▁could	-6.52571
The	-6.53268
...	-6.54821
▁very	-6.54867
▁when	-6.60245
▁my	-6.6256
er	-6.63271
▁been	-6.63733
▁see	-6.64313
▁A	-6.65843
▁much	-6.65897
▁story	-6.66304
▁their	-6.6648
▁do	-6.66893
:	-6.67648
▁she	-6.67806
▁than	-6.6849
I	-6.68798
ve	-6.72168
a	-6.72323
re	-6.74393
▁into	-6.74471
▁which	-6.74747
▁people	-6.78935
▁made	-6.80849
▁don	-6.81496
▁we	-6.83503
▁-	-6.84018
▁other	-6.8521
▁because	-6.85487
▁any	-6.8593
▁plot	-6.87841
▁how	-6.88178
▁too	-6.89953
▁way	-6.93882
▁movies	-6.95512
▁them	-6.96905
▁acting	-6.97146
▁most	-6.98365
▁think	-7.00012
▁will	-7.00965
▁better	-7.02356
l	-7.02427
▁off	-7.02843
▁him	-7.02943
▁characters	-7.03119
▁seen	-7.03392
▁know	-7.03575
▁over	-7.03906
▁should	-7.04727
▁ever	-7.04771
▁character	-7.05888
▁did	-7.05999
▁watch	-7.06499
▁And	-7.07324
▁never	-7.0757
▁show	-7.08037
▁first	-7.10075
al	-7.10154
▁say	-7.11135
▁also	-7.11569
▁then	-7.12684
▁your	-7.12989
▁look	-7.13807
▁But	-7.14066
▁well	-7.15012
▁where	-7.15537
o	-7.18166
es	-7.18841
▁little	-7.20528
▁being	-7.21746
▁'	-7.22106
▁want	-7.22214
▁many	-7.22603
▁thing	-7.22983
).	-7.23789
▁didn	-7.24804
▁i	-7.25271
▁two	-7.2534
▁something	-7.25345
▁after	-7.2583
r	-7.25901
▁S	-7.26091
▁scenes	-7.26654
▁There	-7.27471
▁scene	-7.27978
▁films	-7.28097
;	-7.28182
▁<	-7.28374
in	-7.29218
▁end	-7.29524
▁go	-7.30273
▁If	-7.31654
▁He	-7.31709
ll	-7.32187
▁nothing	-7.32997
▁watching	-7.33518
▁In	-7.3379
/	-7.34823
or	-7.37048
▁does	-7.37336
S	-7.39147
▁actually	-7.39361
ting	-7.40274
▁these	-7.40895
▁doesn	-7.40901
▁B	-7.40935
▁back	-7.41053
▁actors	-7.41104
▁through	-7.41591
▁great	-7.42413
▁going	-7.43161
▁worst	-7.43649
▁minutes	-7.44342
▁man	-7.45251
▁part	-7.46877
A	-7.46891
p	-7.47409
▁such	-7.47571
▁find	-7.47861
),	-7.47961
▁life	-7.48165
▁real	-7.48523
▁why	-7.49118
c	-7.49258
▁funny	-7.50383
▁still	-7.5133
▁work	-7.52024
▁director	-7.52272
▁few	-7.53241
▁script	-7.534
▁before	-7.54221
▁lot	-7.54983
le	-7.55366
▁here	-7.55919
i	-7.56235
▁around	-7.57287
▁old	-7.57496
▁least	-7.57559
▁fact	-7.57823
▁pretty	-7.579
▁best	-7.57927
▁love	-7.57978
▁down	-7.58274
▁those	-7.59966
▁guy	-7.60865
▁its	-7.6241
▁same	-7.62432
▁give	-7.6323
▁enough	-7.63505
▁seems	-7.64587
▁thought	-7.65634
▁another	-7.66728
▁while	-7.69107
▁whole	-7.70489
▁got	-7.70598
and	-7.70614
▁original	-7.71784
on	-7.72036
th	-7.73021
the	-7.7327
▁horror	-7.73777
▁isn	-7.74316
▁again	-7.74509
▁things	-7.749
▁take	-7.75005
▁big	-7.75326
▁might	-7.75352
▁C	-7.75542
▁point	-7.75924
▁feel	-7.75978
b	-7.76204
▁years	-7.77008
▁every	-7.77431
▁They	-7.77482
▁interesting	-7.77594
se	-7.77759
▁stupid	-7.78186
▁money	-7.78233
▁though	-7.78337
▁P	-7.78522
▁un	-7.78993
▁must	-7.79109
▁anything	-7.80827
▁poor	-7.80878
▁long	-7.82846
▁hard	-7.83946
▁far	-7.84123
▁reason	-7.84253
&	-7.85595
T	-7.85918
▁right	-7.86123
▁now	-7.8619
▁awful	-7.86523
▁put	-7.86528
an	-7.86679
te	-7.867
▁book	-7.87076
▁action	-7.87317
▁gets	-7.88018
▁am	-7.88256
▁quite	-7.88801
▁waste	-7.89005
▁kind	-7.89146
▁come	-7.89478
▁bit	-7.89736
ers	-7.89865
f	-7.89866
▁without	-7.89906
▁believe	-7.89944
en	-7.90247
▁effects	-7.91194
ic	-7.91251
▁away	-7.91506
▁comedy	-7.91675
▁sure	-7.92115
C	-7.92175
▁What	-7.92766
▁boring	-7.93058
▁completely	-7.93222
▁2	-7.93238
▁trying	-7.93498
▁done	-7.93765
ion	-7.939
▁You	-7.94058
▁cast	-7.94368
▁else	-7.9501
it	-7.9573
almost	-7.96019
▁re	-7.9635
▁saw	-7.96512
k	-7.96522
▁someone	-7.96616
g	-7.97397
▁name	-7.9812
▁anyone	-7.98748
▁making	-7.99123
▁looking	-7.99505
▁That	-8.00135
able	-8.00804
▁probably	-8.01136
▁goes	-8.01283
▁idea	-8.01665
▁world	-8.01671
".	-8.01675
▁seem	-8.01785
▁sense	-8.02177
▁girl	-8.0224
▁tell	-8.03704
▁terrible	-8.03796
less	-8.04632
▁read	-8.04641
▁place	-8.04856
ar	-8.05029
D	-8.0534
▁main	-8.05437
▁role	-8.06096
▁wasn	-8.06143
▁D	-8.06525
▁left	-8.0707
▁TV	-8.07154
--	-8.07972
▁screen	-8.08826
▁So	-8.09295
▁fun	-8.09672
▁found	-8.09922
▁10	-8.09925
▁No	-8.10374
▁worse	-8.10469
u	-8.10636
M	-8.10676
▁new	-8.11312
as	-8.11382
us	-8.11511
▁us	-8.11938
▁set	-8.11967
R	-8.1204
▁instead	-8.1227
▁times	-8.12324
(	-8.12685
▁looks	-8.13346
▁own	-8.13364
▁always	-8.1347
▁let	-8.13507
ce	-8.13537
",	-8.13978
▁camera	-8.14025
▁American	-8.14483
is	-8.14991
▁low	-8.15103
▁since	-8.15196
▁use	-8.15588
▁may	-8.15852
▁between	-8.16407
man	-8.16421
This	-8.16443
▁last	-8.16449
▁watched	-8.16519
▁M	-8.16928
▁actor	-8.16931
▁special	-8.17021
▁rather	-8.17024
▁budget	-8.17129
▁When	-8.17145
▁woman	-8.17648
▁everything	-8.18883
▁laugh	-8.1889
el	-8.18918
▁start	-8.1927
P	-8.19722
▁audience	-8.20022
▁music	-8.20709
▁shot	-8.20755
▁guess	-8.20782
▁either	-8.20806
▁sound	-8.21374
▁She	-8.21972
▁F	-8.22231
▁hav	-8.22296
▁T	-8.22324
ness	-8.22786
It	-8.23164
▁As	-8.23195
w	-8.23265
▁wrong	-8.23377
ur	-8.23387
▁need	-8.23589
h	-8.23617
▁ending	-8.23644
▁fan	-8.24037
▁Why	-8.24109
▁horrible	-8.24691
▁try	-8.24837
▁comes	-8.251
▁young	-8.25341
▁course	-8.25357
▁short	-8.25358
▁dialogue	-8.25361
▁rest	-8.25433
▁DVD	-8.26718
▁To	-8.27098
▁worth	-8.27124
▁half	-8.27404
▁line	-8.27927
▁K	-8.28316
▁day	-8.28354
▁said	-8.28762
est	-8.29322
▁under	-8.29531
▁head	-8.29545
▁high	-8.30343
▁seeing	-8.30522
▁remember	-8.30857
▁mean	-8.31283
▁once	-8.31403
▁guys	-8.31892
▁care	-8.32134
▁different	-8.32299
▁E	-8.32625
▁For	-8.32848
▁both	-8.32864
▁each	-8.33003
ity	-8.33459
▁friends	-8.33488
▁series	-8.33761
▁Not	-8.33831
▁kids	-8.34321
▁three	-8.34465
▁went	-8.3451
▁absolutely	-8.34522
▁job	-8.34706
st	-8.35176
▁sort	-8.35198
▁everyone	-8.35224
to	-8.35616
▁person	-8.35875
▁3	-8.3588
▁case	-8.35931
▁women	-8.35942
▁production	-8.35964
ra	-8.36312
▁Well	-8.36527
▁used	-8.36875
B	-8.37101
▁play	-8.374
▁yet	-8.37462
▁video	-8.37475
▁nice	-8.37819
▁simply	-8.38186
▁version	-8.38189
▁our	-8.38299
ie	-8.38617
▁flick	-8.38625
▁supposed	-8.38711
▁played	-8.38728
▁sex	-8.38738
▁together	-8.3895
▁run	-8.39153
▁doing	-8.39266
▁ridiculous	-8.39719
N	-8.39807
▁crap	-8.40019
▁piece	-8.40215
▁next	-8.40494
▁fall	-8.405
▁b	-8.40591
▁kill	-8.4087
▁plays	-8.40889
▁dur	-8.40945
▁however	-8.41325
▁lack	-8.41976
▁THE	-8.42403
▁We	-8.42847
▁men	-8.43318
ies	-8.43435
▁seemed	-8.43535
▁full	-8.43627
▁All	-8.44207
▁sit	-8.44227
▁wife	-8.44498
▁night	-8.44564
▁help	-8.44756
▁killed	-8.44926
▁performance	-8.45094
▁cheap	-8.45276
▁family	-8.45283
▁turn	-8.45498
▁entire	-8.45744
▁shows	-8.45777
ous	-8.45858
▁ga	-8.46088
▁black	-8.46133
▁school	-8.46165
▁However	-8.46193
▁keep	-8.46761
▁Hollywood	-8.46949
▁attempt	-8.4701
at	-8.47105
ne	-8.47256
▁O	-8.47417
▁small	-8.47755
▁usual	-8.47762
▁quality	-8.47768
▁felt	-8.47768
▁mind	-8.47814
▁came	-8.47897
▁One	-8.48185
ther	-8.48303
E	-8.48415
▁recommend	-8.48944
▁given	-8.48998
▁takes	-8.48999
▁John	-8.495
▁especially	-8.49525
▁house	-8.4958
▁understand	-8.49642
▁star	-8.49701
▁My	-8.50008
▁problem	-8.50243
▁himself	-8.50298
▁home	-8.50298
▁year	-8.50371
ish	-8.5071
▁R	-8.51008
▁wanted	-8.51047
▁example	-8.51061
▁second	-8.51132
▁tries	-8.51167
ri	-8.51384
▁lead	-8.51754
▁save	-8.51761
▁Don	-8.51762
▁couple	-8.5203
up	-8.52208
▁town	-8.52246
▁along	-8.52343
▁death	-8.52847
▁itself	-8.52907
▁true	-8.52931
am	-8.53218
ro	-8.53537
▁playing	-8.53616
▁already	-8.53792
▁etc	-8.53792
▁	-8.53794
▁On	-8.54056
ch	-8.54322
▁H	-8.54962
▁de	-8.55021
▁enjoy	-8.55091
▁close	-8.55205
▁lines	-8.5543
▁near	-8.55583
one	-8.56276
▁dead	-8.56616
▁p	-8.56878
▁war	-8.57208
▁less	-8.57435
▁After	-8.5749
▁face	-8.58267
▁W	-8.58458
▁monster	-8.58486
▁car	-8.59061
▁maybe	-8.59352
ation	-8.59472
▁Then	-8.59876
▁decent	-8.60244
▁direction	-8.60247
▁written	-8.60263
K	-8.60307
In	-8.60711
▁slow	-8.60847
▁writing	-8.61182
▁classic	-8.6121
ist	-8.61221
ter	-8.61489
▁called	-8.6164
▁c	-8.61978
▁4	-8.6236
▁writer	-8.62474
▁unti	-8.62615
la	-8.62958
▁father	-8.63146
▁wonder	-8.63336
▁friend	-8.6341
L	-8.63417
▁mess	-8.63672
If	-8.63758
Y	-8.64116
▁Even	-8.64158
▁G	-8.64459
▁stuff	-8.65076
▁pick	-8.65116
▁annoying	-8.65135
▁matter	-8.65412
▁L	-8.65599
▁myself	-8.66071
▁stop	-8.66073
▁How	-8.66157
▁side	-8.66701
▁drama	-8.67056
▁God	-8.67063
▁5	-8.67065
tally	-8.67103
▁complete	-8.67475
z	-8.67801
▁manage	-8.68058
▁beginning	-8.68106
▁won	-8.68136
▁1	-8.68604
O	-8.68717
ian	-8.68876
▁At	-8.69033
▁act	-8.69111
G	-8.69124
▁dialog	-8.69127
▁silly	-8.69133
▁obvious	-8.69826
▁humor	-8.70157
▁picture	-8.7019
▁title	-8.70661
▁hour	-8.70736
ir	-8.70766
▁fans	-8.71196
▁mother	-8.71235
▁stay	-8.71286
▁Also	-8.71329
▁thinking	-8.71414
ant	-8.7177
▁top	-8.71854
▁local	-8.72293
▁female	-8.72306
!!!	-8.72612
▁meet	-8.7291
▁group	-8.73366
▁son	-8.73651
▁obviously	-8.73727
▁sever	-8.73814
▁extreme	-8.74453
▁predictable	-8.74459
▁call	-8.74633
▁fight	-8.75113
▁dull	-8.75566
▁fair	-8.75573
▁cool	-8.75592
ty	-8.75608
▁later	-8.75616
ive	-8.75781
▁hand	-8.75839
▁killer	-8.76379
▁stars	-8.76382
▁poorly	-8.76453
▁entertaining	-8.76749
▁against	-8.76787
▁happens	-8.7688
▁talent	-8.76901
▁game	-8.77373
▁episode	-8.77393
et	-8.77474
▁co	-8.77644
na	-8.77644
ton	-8.77729
▁themselves	-8.77787
▁bunch	-8.77787
▁becomes	-8.78102
▁--	-8.78251
▁live	-8.78433
F	-8.78468
▁often	-8.78568
ha	-8.78804
▁cinema	-8.78911
▁cover	-8.78934
▁weak	-8.78961
▁disappointed	-8.78967
ke	-8.79072
ge	-8.79129
▁become	-8.79819
▁boy	-8.79915
3	-8.80011
▁pay	-8.80074
▁hell	-8.80081
▁expect	-8.80192
ent	-8.80222
il	-8.80459
There	-8.8063
▁hours	-8.80645
id	-8.80882
▁wish	-8.81158
▁beautiful	-8.81236
▁genre	-8.81275
▁white	-8.8129
▁OK	-8.81351
lo	-8.81371
▁talk	-8.81474
▁took	-8.81475
!!	-8.81916
▁mention	-8.8197
▁N	-8.82039
▁started	-8.82088
fi	-8.82132
un	-8.82267
ry	-8.82378
▁children	-8.82412
▁sad	-8.82446
▁fails	-8.8301
▁hate	-8.83467
▁happen	-8.83509
▁hero	-8.83548
▁except	-8.83563
▁spend	-8.8362
▁turns	-8.83852
▁wouldn	-8.845
▁Man	-8.84545
▁sequel	-8.8456
!)	-8.84679
▁Just	-8.84922
▁cut	-8.84937
▁order	-8.84971
lthough	-8.85215
▁words	-8.85445
▁blood	-8.8581
▁spent	-8.86033
▁daughter	-8.86044
▁early	-8.86077
▁Of	-8.86382
ck	-8.86598
▁final	-8.86696
but	-8.86875
▁dark	-8.87258
▁truly	-8.87261
▁tried	-8.87266
▁Oh	-8.87483
▁review	-8.87533
▁parts	-8.87963
be	-8.88058
sh	-8.88209
▁decide	-8.88271
▁viewer	-8.88477
▁lost	-8.88534
▁talking	-8.89163
▁move	-8.89442
▁saying	-8.89571
▁jokes	-8.89584
▁girls	-8.89704
▁rating	-8.89772
▁huge	-8.89778
▁First	-8.89892
▁bring	-8.9012
."	-8.90161
▁gore	-8.90359
And	-8.90759
▁hit	-8.90906
▁f	-8.91124
▁involved	-8.91158
▁Mr	-8.91271
▁Now	-8.9129
▁interest	-8.9131
▁figure	-8.91406
▁h	-8.91511
son	-8.9163
W	-8.91659
▁hope	-8.91974
▁moments	-8.92126
▁dumb	-8.9219
out	-8.92267
▁self	-8.9234
▁human	-8.92372
▁fine	-8.92381
taking	-8.92452
▁across	-8.92509
▁finally	-8.92727
▁happened	-8.92846
no	-8.93043
king	-8.9326
ling	-8.93437
▁pathetic	-8.93696
▁team	-8.93699
▁20	-8.93796
▁Ed	-8.94776
ma	-8.9478
ul	-8.94912
▁footage	-8.9501
▁average	-8.95042
▁evil	-8.95075
▁Whi	-8.95108
▁cannot	-8.95163
▁follow	-8.953
▁De	-8.9531
▁st	-8.95349
▁pre	-8.95747
▁actress	-8.96281
▁result	-8.96358
▁violence	-8.96358
▁behind	-8.96358
▁voice	-8.96366
▁effort	-8.96367
▁space	-8.96394
▁throughout	-8.96421
if	-8.97131
▁total	-8.97346
▁liked	-8.97484
1	-8.97527
▁running	-8.97739
▁room	-8.97877
▁shots	-8.97882
▁Some	-8.97916
▁able	-8.97932
age	-8.98135
he	-8.9846
▁ex	-8.98462
▁heart	-8.98538
▁others	-8.98743
▁serious	-8.98812
▁novel	-8.99128
▁possible	-8.99149
▁With	-8.99175
▁Michael	-8.99194
▁scary	-8.99243
▁style	-8.99284
▁coming	-8.99308
▁His	-8.99455
▁wasted	-8.99463
▁turned	-8.99883
▁strange	-9.00383
ary	-9.00437
▁write	-9.00486
▁major	-9.00525
▁kept	-9.00526
▁late	-9.00558
▁hold	-9.00678
x	-9.00719
▁Do	-9.00765
▁joke	-9.0078
▁type	-9.00789
like	-9.00922
ine	-9.01096
▁walk	-9.01341
▁break	-9.01499
9	-9.01745
▁IMDb	-9.01954
▁documentary	-9.01955
ally	-9.01964
▁message	-9.01986
▁check	-9.02008
▁exactly	-9.02032
▁Maybe	-9.02097
▁moment	-9.02206
▁kid	-9.02219
▁directed	-9.02224
▁art	-9.02334
▁soon	-9.02901
▁Re	-9.02964
▁yourself	-9.03403
▁pull	-9.03403
*	-9.03428
▁Or	-9.035
ment	-9.0357
▁seriously	-9.03769
▁heard	-9.03793
▁appears	-9.04025
▁gun	-9.04092
▁age	-9.04355
um	-9.04468
ate	-9.04496
▁cheesy	-9.04874
▁subject	-9.04874
▁knew	-9.04874
▁body	-9.04879
▁editing	-9.04951
▁certainly	-9.05131
▁career	-9.05272
im	-9.05399
▁non	-9.0571
ted	-9.06248
!"	-9.06297
yond	-9.06359
▁English	-9.06397
▁box	-9.06428
▁Van	-9.0647
▁Robert	-9.06821
▁opening	-9.06954
which	-9.07303
▁nor	-9.07462
▁opinion	-9.07881
▁doubt	-9.07882
▁weird	-9.07882
▁New	-9.0789
▁hair	-9.07894
▁NOT	-9.07904
▁problems	-9.07978
▁sub	-9.07989
▁change	-9.08082
▁leave	-9.08306
ism	-9.08413
▁none	-9.08424
▁ago	-9.08488
▁avoid	-9.08533
▁experience	-9.09119
▁light	-9.09144
ful	-9.09207
▁Dr	-9.09333
▁Instead	-9.09476
▁past	-9.09661
▁wear	-9.09815
▁ten	-9.09874
▁open	-9.09913
▁lame	-9.10035
▁J	-9.10234
▁cop	-9.10417
▁Ma	-9.10475
▁add	-9.10524
▁feeling	-9.10591
▁whe	-9.10669
▁sometimes	-9.10986
▁redeem	-9.11036
▁sci	-9.11093
tic	-9.11268
▁starts	-9.11279
▁decided	-9.11386
▁V	-9.11518
▁die	-9.11815
What	-9.1199
▁needed	-9.1206
But	-9.12077
2	-9.12198
not	-9.12262
▁bother	-9.12517
▁French	-9.1257
▁cinematography	-9.1257
▁score	-9.12577
▁child	-9.1259
ley	-9.12697
So	-9.13142
▁days	-9.13889
▁shown	-9.13904
▁material	-9.14182
▁trash	-9.14186
▁alone	-9.14188
▁girlfriend	-9.14197
so	-9.14202
▁single	-9.14213
▁storyline	-9.14299
▁apparently	-9.14348
▁reviews	-9.1436
▁released	-9.14475
▁says	-9.14565
▁Mo	-9.14636
▁rent	-9.14809
ever	-9.14886
▁badly	-9.14955
ia	-9.15464
▁d	-9.1549
▁clear	-9.15519
▁post	-9.15539
....	-9.15722
▁premise	-9.15822
▁history	-9.15823
▁stories	-9.15865
▁told	-9.15874
▁thriller	-9.15947
ig	-9.16084
▁con	-9.16393
▁begin	-9.16492
▁taken	-9.16527
▁m	-9.16708
▁speak	-9.16866
▁release	-9.17212
▁admit	-9.17486
▁attention	-9.17488
▁bigge	-9.17561
▁quickly	-9.17603
▁performances	-9.17871
ad	-9.17915
▁...	-9.17949
▁enjoyed	-9.18327
▁feature	-9.18639
go	-9.18918
▁four	-9.19149
▁excellent	-9.19183
▁Unfortunately	-9.19318
▁particularly	-9.19466
ut	-9.19475
for	-9.19615
▁t	-9.19818
▁word	-9.20064
ner	-9.20262
nt	-9.20344
▁buy	-9.20347
V	-9.20768
▁hot	-9.20885
▁chance	-9.20912
▁crew	-9.20919
▁murder	-9.20927
▁based	-9.2105
▁unless	-9.21138
▁clearly	-9.21277
▁eyes	-9.21331
▁lives	-9.21462
pe	-9.22021
oo	-9.22288
▁front	-9.22573
▁potential	-9.22662
▁imagine	-9.22677
▁class	-9.22707
▁basically	-9.22707
▁perhaps	-9.22719
▁David	-9.22739
▁reading	-9.22873
mo	-9.22955
▁parents	-9.2307
▁War	-9.23097
▁due	-9.23123
ho	-9.23257
▁shoot	-9.23835
▁important	-9.24132
▁An	-9.24244
As	-9.24374
	-9.24448
▁excuse	-9.24448
▁husband	-9.24474
▁anyway	-9.24511
▁water	-9.24532
▁somewhat	-9.24551
▁bored	-9.24556
▁Jack	-9.24588
▁pointless	-9.2459
▁Most	-9.24597
ated	-9.24649
▁Yes	-9.24652
line	-9.24692
der	-9.25057
4	-9.25061
▁aren	-9.25077
▁sequences	-9.25159
▁view	-9.25161
▁upon	-9.2524
▁brother	-9.25419
▁credit	-9.25493
J	-9.25551
▁Be	-9.25596
▁wait	-9.25661
5	-9.25696
▁dis	-9.25814
ag	-9.2589
ure	-9.26005
v	-9.26186
▁straight	-9.26265
▁simple	-9.26266
▁large	-9.26267
giving	-9.26268
▁favorite	-9.26269
▁entertainment	-9.26285
movie	-9.2669
▁dog	-9.2673
▁appear	-9.26865
▁power	-9.27205
▁level	-9.27279
▁theater	-9.27283
▁e	-9.27461
who	-9.27967
▁fire	-9.28
▁famous	-9.28118
▁purpose	-9.28118
▁store	-9.28119
▁stick	-9.28129
▁please	-9.28156
▁overall	-9.28197
mp	-9.28256
▁sorry	-9.28257
▁Go	-9.28428
▁camp	-9.28907
▁sets	-9.29056
▁hear	-9.29158
▁villain	-9.2923
▁sequence	-9.29258
▁minute	-9.2937
▁comment	-9.2951
▁learn	-9.29545
▁actual	-9.29664
ud	-9.29676
land	-9.29783
▁living	-9.30006
▁country	-9.30012
0	-9.30043
▁suspense	-9.30065
▁happy	-9.30091
▁Who	-9.30104
▁somehow	-9.30113
My	-9.30169
▁forced	-9.30188
ster	-9.30227
▁U	-9.30308
▁ship	-9.30326
▁6	-9.30371
▁stand	-9.3058
▁pass	-9.30724
ance	-9.31057
▁cause	-9.31062
▁project	-9.31114
H	-9.31118
▁jump	-9.31332
▁flat	-9.31396
▁Bo	-9.31469
▁roles	-9.31469
▁working	-9.31714
▁Ra	-9.31793
▁Indian	-9.31852
▁count	-9.3186
▁police	-9.319
▁bizarre	-9.31927
▁positive	-9.31927
▁attack	-9.31929
▁believable	-9.31949
▁support	-9.31956
▁James	-9.31979
os	-9.3198
▁definitely	-9.31988
▁Wood	-9.32017
▁ask	-9.32136
▁painful	-9.32162
▁offer	-9.32291
▁gives	-9.32502
▁killing	-9.32641
▁explain	-9.32795
▁crime	-9.33132
▁number	-9.33183
▁alien	-9.33189
▁value	-9.33197
▁song	-9.33511
▁super	-9.33513
co	-9.33591
?)	-9.33623
▁mostly	-9.33672
ble	-9.33749
▁Fro	-9.33765
▁middle	-9.33889
▁television	-9.33889
▁deep	-9.33908
▁battle	-9.33957
▁brain	-9.33965
▁works	-9.34148
U	-9.34441
ta	-9.34458
ably	-9.34545
▁*	-9.34659
")	-9.35048
▁rate	-9.35101
▁today	-9.35251
▁question	-9.35261
▁certain	-9.35539
▁despi	-9.35573
▁suppose	-9.35588
▁known	-9.35699
▁agree	-9.35814
▁trouble	-9.35888
▁common	-9.35888
▁cartoon	-9.35889
▁disappointment	-9.35891
▁amount	-9.35942
▁Nothing	-9.35943
▁five	-9.35973
▁strong	-9.35978
▁plain	-9.35989
io	-9.36466
▁land	-9.36622
▁comments	-9.36679
▁sh	-9.36755
▁Un	-9.3678
▁credits	-9.368
do	-9.36941
ol	-9.37046
▁Let	-9.37104
▁previous	-9.37573
▁list	-9.37625
▁haven	-9.37902
▁similar	-9.37925
▁garbage	-9.37929
▁describe	-9.3793
▁okay	-9.37984
▁barely	-9.38021
7	-9.38576
▁expected	-9.38732
▁hop	-9.38774
▁ma	-9.38991
em	-9.39009
▁accent	-9.39415
▁build	-9.39446
▁situation	-9.39447
well	-9.39473
▁present	-9.39589
of	-9.39599
▁perfect	-9.39644
▁British	-9.40012
▁needs	-9.40022
▁among	-9.40036
▁Like	-9.40067
▁forward	-9.40311
▁ends	-9.4043
▁building	-9.40626
ick	-9.40731
ni	-9.4086
die	-9.40868
all	-9.41068
▁acted	-9.41071
▁elements	-9.41132
▁Al	-9.41164
▁twist	-9.41188
▁door	-9.41511
▁ended	-9.41595
that	-9.41688
▁showing	-9.42005
▁suggest	-9.4214
▁typical	-9.4214
▁easy	-9.4214
▁mix	-9.42145
▁hilarious	-9.42172
▁modern	-9.42184
▁nowhere	-9.42212
▁using	-9.42249
▁reality	-9.42354
ap	-9.42552
▁events	-9.4257
▁remind	-9.42774
▁hands	-9.42971
▁toward	-9.42999
▁expecting	-9.43279
ug	-9.43371
dy	-9.43637
▁writers	-9.43711
▁Tom	-9.44061
▁ha	-9.44105
▁realize	-9.44118
this	-9.44264
▁difficult	-9.44314
▁nudity	-9.44314
▁above	-9.44316
▁vote	-9.4432
▁forget	-9.44322
▁eye	-9.44329
▁create	-9.44345
▁leads	-9.44346
▁OF	-9.44355
▁Scott	-9.44372
▁rock	-9.44382
▁fish	-9.44385
▁laughable	-9.44431
time	-9.44476
▁90	-9.44512
▁7	-9.44552
ier	-9.44693
▁anti	-9.44807
▁po	-9.44872
ng	-9.45044
▁songs	-9.4507
ER	-9.45269
▁mentioned	-9.45331
ow	-9.45522
▁rip	-9.45657
▁comic	-9.46054
▁respect	-9.46069
▁background	-9.46536
▁disaster	-9.46536
▁paid	-9.46536
▁odd	-9.46537
▁CGI	-9.46549
▁male	-9.46665
▁viewers	-9.46806
▁missing	-9.46973
▁Ha	-9.46995
▁theme	-9.47087
▁deal	-9.47369
▁di	-9.47439
▁La	-9.47884
per	-9.481
▁discover	-9.48117
▁amazing	-9.4845
▁incredibl	-9.48599
▁possib	-9.48754
▁form	-9.48764
▁prison	-9.48768
▁college	-9.48809
▁soundtrack	-9.48809
▁future	-9.4881
▁fast	-9.48815
▁screenplay	-9.4882
▁gang	-9.48829
▁mood	-9.48833
▁Italian	-9.48843
▁Perhaps	-9.48856
▁bomb	-9.48881
▁George	-9.48883
▁Richard	-9.48885
▁Bad	-9.4906
da	-9.49093
▁attempts	-9.49207
▁drive	-9.49234
om	-9.49489
came	-9.49607
▁interested	-9.49611
▁pro	-9.49678
▁inside	-9.49749
hi	-9.49831
▁filmmakers	-9.49972
▁Le	-9.50294
▁means	-9.50477
▁free	-9.50606
▁sc	-9.50736
▁By	-9.50799
▁effect	-9.50846
ang	-9.50974
▁sick	-9.51122
▁regard	-9.51134
▁control	-9.51135
▁serve	-9.51135
▁wooden	-9.51135
▁70	-9.51145
▁slasher	-9.51159
volving	-9.51165
▁fake	-9.5117
▁former	-9.51288
▁win	-9.51457
ING	-9.51548
▁holes	-9.52013
▁points	-9.52168
nd	-9.52211
▁fighting	-9.52446
▁deliver	-9.5252
▁throw	-9.52798
▁80	-9.52807
▁hardly	-9.53016
vi	-9.53106
▁suit	-9.53321
▁mediocre	-9.53516
▁wrote	-9.53516
▁neither	-9.53516
▁dress	-9.53571
▁military	-9.5358
▁30	-9.53669
▁successful	-9.53711
▁whatever	-9.53754
▁cat	-9.53759
▁setting	-9.53789
▁9	-9.5385
▁fill	-9.53971
▁fit	-9.54042
▁beat	-9.5408
off	-9.54095
▁meant	-9.54133
▁provide	-9.54303
▁Her	-9.54469
ice	-9.54902
▁Here	-9.54925
me	-9.54936
▁leaves	-9.55272
▁escape	-9.55394
▁America	-9.55702
▁laughing	-9.55885
▁basic	-9.55943
▁smart	-9.55955
▁computer	-9.55955
▁bought	-9.55967
▁la	-9.56038
▁produced	-9.56041
▁concept	-9.56085
▁trip	-9.5613
▁god	-9.56364
▁knows	-9.56382
▁lo	-9.56489
op	-9.56538
▁directing	-9.56581
8	-9.5659
ay	-9.57113
▁direct	-9.57278
▁drug	-9.57331
top	-9.57346
▁Car	-9.57497
▁plan	-9.57681
ill	-9.57789
etic	-9.57806
with	-9.57883
▁pace	-9.58075
▁honest	-9.58102
▁particular	-9.58105
▁reasons	-9.58271
▁creature	-9.58291
▁secret	-9.58441
▁desert	-9.58456
▁ground	-9.58458
▁various	-9.58461
▁remake	-9.58467
▁development	-9.58468
▁romantic	-9.58477
▁third	-9.58492
▁notice	-9.58539
▁send	-9.58554
▁disappointing	-9.58587
ney	-9.58603
▁thrown	-9.58637
▁failed	-9.58673
▁taste	-9.58677
▁bar	-9.58699
▁surprised	-9.58727
▁oh	-9.58735
▁considered	-9.58899
og	-9.5892
light	-9.58924
▁15	-9.59043
▁fl	-9.59165
▁gay	-9.59181
que	-9.59336
▁Lee	-9.59414
day	-9.59497
ard	-9.5962
▁torture	-9.59704
▁Co	-9.59781
ga	-9.59788
▁touch	-9.59903
▁consider	-9.59921
▁producers	-9.60087
some	-9.60448
▁general	-9.60665
▁sign	-9.60718
?"	-9.60725
▁German	-9.60782
You	-9.60791
▁relationship	-9.60919
uff	-9.60959
▁victim	-9.60962
▁cross	-9.61018
▁earlier	-9.61019
▁herself	-9.61019
▁period	-9.61019
▁political	-9.61019
▁Japanese	-9.61019
▁tale	-9.6102
▁memorable	-9.6102
▁appreciate	-9.61021
▁train	-9.61021
▁rich	-9.61023
▁adaptation	-9.6103
▁yes	-9.61036
▁agent	-9.61042
▁porn	-9.61043
▁moving	-9.61093
▁slightly	-9.61124
▁Watch	-9.61187
▁gone	-9.61253
▁equal	-9.61342
▁musical	-9.61361
▁copy	-9.61404
nna	-9.61559
▁cute	-9.61622
ach	-9.61664
ten	-9.61708
▁sadly	-9.61792
red	-9.62113
▁g	-9.62252
you	-9.62399
▁fr	-9.6247
▁features	-9.62513
art	-9.62526
▁cr	-9.62672
▁Me	-9.627
▁island	-9.62702
▁grow	-9.62971
▁party	-9.63013
▁insult	-9.63022
ence	-9.63041
▁includ	-9.63112
▁50	-9.63155
side	-9.63314
nother	-9.63417
▁sexual	-9.63418
▁King	-9.63453
▁filmed	-9.63582
▁clever	-9.63621
▁drag	-9.63623
▁Christian	-9.63628
▁industry	-9.6365
▁clothes	-9.63651
▁crazy	-9.63651
▁pure	-9.6368
▁otherwise	-9.63686
▁apart	-9.6371
▁crappy	-9.63722
▁perform	-9.63725
▁earth	-9.63735
▁NO	-9.63796
rew	-9.64252
j	-9.64305
▁rented	-9.64388
ba	-9.64563
▁died	-9.64684
ns	-9.6495
rought	-9.65096
▁wondering	-9.65331
rs	-9.65399
▁shame	-9.65803
▁mis	-9.65886
▁visual	-9.6599
▁state	-9.66054
For	-9.66175
▁loved	-9.66239
▁within	-9.66292
▁personal	-9.6635
▁company	-9.66353
▁plenty	-9.66353
▁scientist	-9.66353
▁giant	-9.66353
▁Moore	-9.66353
▁shallow	-9.66354
▁amusing	-9.66354
▁sister	-9.66355
▁random	-9.66356
▁absurd	-9.66377
▁catch	-9.66438
▁fell	-9.66462
▁sp	-9.66473
▁Star	-9.66545
▁compared	-9.66572
▁Too	-9.66711
▁wonderful	-9.66748
▁r	-9.66858
ank	-9.67164
par	-9.67244
my	-9.67272
▁lacks	-9.67291
▁shooting	-9.67349
ab	-9.67489
▁soldiers	-9.67515
▁walking	-9.67531
▁members	-9.67927
▁plane	-9.68071
uit	-9.68135
old	-9.68156
een	-9.68414
▁per	-9.68468
▁appeal	-9.68494
▁sleep	-9.68513
▁air	-9.68638
▁cliché	-9.68978
▁surprise	-9.68983
▁mistake	-9.69014
▁8	-9.6906
▁Seagal	-9.69131
▁remote	-9.69131
▁turkey	-9.69131
▁whatsoever	-9.69131
▁western	-9.69132
▁conclusion	-9.69132
▁rubbish	-9.69136
▁further	-9.69136
▁atmosphere	-9.6914
▁fear	-9.69146
▁unbelievable	-9.69148
▁portrayal	-9.69179
▁th	-9.69196
▁Peter	-9.69206
▁easily	-9.69235
▁constantly	-9.69255
tal	-9.69296
▁display	-9.69315
▁sounds	-9.69355
To	-9.69376
▁folks	-9.69477
ade	-9.69496
▁Mary	-9.69501
▁sing	-9.69691
▁created	-9.69694
▁added	-9.69944
▁Di	-9.70139
ned	-9.70182
ite	-9.70209
?!	-9.70548
uch	-9.70712
▁Jo	-9.71229
▁books	-9.7151
▁chase	-9.71839
mar	-9.71897
▁channel	-9.71988
▁travel	-9.71988
▁truth	-9.71988
▁Earth	-9.71988
▁interview	-9.7199
▁impression	-9.71997
▁MST	-9.72006
▁normal	-9.72052
▁charge	-9.72052
▁ra	-9.72085
▁unfortunately	-9.72095
▁sucked	-9.72306
▁Where	-9.72367
▁Although	-9.72518
by	-9.72758
▁realistic	-9.72827
▁Tr	-9.72948
▁waiting	-9.72965
▁episodes	-9.73004
▁happening	-9.73478
▁sat	-9.73632
▁12	-9.74153
???	-9.7431
▁exist	-9.7439
▁Li	-9.7453
▁Da	-9.74662
▁Steve	-9.74761
▁stage	-9.74762
6	-9.74803
▁dance	-9.74835
▁brilliant	-9.74929
▁answer	-9.74929
▁horse	-9.74929
▁lousy	-9.74929
▁ugly	-9.74932
▁animation	-9.74932
▁impossible	-9.74935
▁match	-9.74936
▁glad	-9.74936
▁Jim	-9.74952
▁Dead	-9.74952
▁immediately	-9.74966
▁mere	-9.74974
▁tired	-9.75002
▁enjoyable	-9.75041
▁extra	-9.75264
▁Joe	-9.75316
We	-9.75329
▁sl	-9.75425
▁younger	-9.75527
▁considering	-9.75642
way	-9.75752
ber	-9.75782
▁viewing	-9.75941
▁costumes	-9.76198
▁William	-9.7629
▁highly	-9.76431
▁bi	-9.76509
ny	-9.76568
▁18	-9.76605
▁bed	-9.7667
ker	-9.76689
▁sucks	-9.76873
lin	-9.76894
ah	-9.76979
When	-9.7738
even	-9.77381
ial	-9.77519
aw	-9.77544
ca	-9.77561
▁emotional	-9.77682
▁ideas	-9.77873
▁mine	-9.77941
▁cult	-9.77951
▁century	-9.77959
▁confusing	-9.77959
▁embarrassing	-9.77959
▁explanation	-9.77959
▁violent	-9.77959
▁Great	-9.77959
▁depth	-9.77959
▁York	-9.7796
▁leaving	-9.77961
▁nature	-9.77961
▁baby	-9.77963
▁lady	-9.7797
▁saving	-9.77971
▁public	-9.77997
▁climax	-9.78023
▁Everything	-9.78041
▁prove	-9.78044
▁Charles	-9.78056
▁confused	-9.78068
▁deserve	-9.78068
▁rare	-9.78082
▁demon	-9.78132
▁motion	-9.78137
▁US	-9.78241
▁vampire	-9.78367
▁watchable	-9.78469
▁laughs	-9.78595
▁Che	-9.78623
ating	-9.78693
▁changed	-9.78759
▁boys	-9.78877
▁questions	-9.78949
ti	-9.79073
▁require	-9.79116
ack	-9.79121
▁entirely	-9.79286
▁ways	-9.79295
Not	-9.7937
ily	-9.79564
▁Mar	-9.79574
ties	-9.79902
▁shock	-9.80009
led	-9.80043
▁reviewer	-9.80065
▁changes	-9.8027
ron	-9.80508
▁ride	-9.80551
ka	-9.80611
▁finish	-9.80629
▁recent	-9.80756
gu	-9.80865
▁sa	-9.80919
▁Smith	-9.81084
▁creepy	-9.81084
▁fashion	-9.81084
▁mouth	-9.81084
▁romance	-9.81084
▁attitude	-9.81085
▁visit	-9.81085
▁information	-9.81089
▁expectations	-9.81092
▁connection	-9.81113
▁disturbing	-9.81114
▁Film	-9.81132
▁promise	-9.81152
▁trailer	-9.81191
▁intelligent	-9.81224
▁suddenly	-9.81258
▁Lu	-9.8126
▁dramatic	-9.81299
min	-9.81345
ric	-9.81415
▁emotion	-9.81524
▁million	-9.81544
▁zombie	-9.81615
▁student	-9.81617
▁remain	-9.81624
▁week	-9.81646
▁Du	-9.8184
▁asked	-9.81853
bo	-9.81872
▁casting	-9.81876
▁sexy	-9.82054
ex	-9.8216
▁pain	-9.82214
ver	-9.82286
ub	-9.82327
▁inter	-9.82335
▁exception	-9.82553
▁supposedly	-9.82559
▁19	-9.82657
▁skin	-9.82776
▁ch	-9.82788
cal	-9.83143
▁Se	-9.83228
ette	-9.83255
▁miss	-9.83478
ock	-9.83487
▁lacking	-9.83574
▁carry	-9.83726
budget	-9.8373
ue	-9.83794
ring	-9.83812
▁destroy	-9.83883
▁meaning	-9.83889
▁convincing	-9.83937
▁utter	-9.83957
unt	-9.84054
▁success	-9.84125
Don	-9.84171
▁Lynch	-9.8431
▁World	-9.8431
▁brief	-9.8431
▁angry	-9.84311
▁humour	-9.84311
▁mask	-9.84315
▁dying	-9.84319
▁mad	-9.84321
▁tough	-9.84321
▁amateurish	-9.84323
▁popular	-9.84342
▁Lo	-9.84349
▁pretentious	-9.84359
▁bottom	-9.84378
▁victims	-9.84382
▁city	-9.84393
▁loud	-9.84422
▁somewhere	-9.84433
▁mid	-9.84451
▁Every	-9.84484
▁round	-9.84503
▁sn	-9.84585
▁Steven	-9.84607
ff	-9.84651
tra	-9.84705
▁o	-9.84818
▁Movie	-9.85044
▁heck	-9.8505
com	-9.85237
▁leader	-9.85311
▁longer	-9.85315
▁Ben	-9.85346
▁worked	-9.85628
▁talented	-9.85638
▁Pa	-9.85718
▁shop	-9.85741
▁following	-9.85814
▁flicks	-9.85835
He	-9.86235
▁begins	-9.86274
▁fat	-9.8659
ger	-9.86612
ris	-9.86638
▁business	-9.86874
`	-9.87054
▁eat	-9.87091
right	-9.87102
▁date	-9.87532
ized	-9.87556
▁clue	-9.87609
▁lose	-9.87622
▁mark	-9.87634
+	-9.87643
	-9.87643
▁Because	-9.87643
▁fault	-9.87643
▁process	-9.87644
▁cash	-9.87644
▁hurt	-9.87646
▁Mexican	-9.87647
▁sake	-9.8766
▁science	-9.87665
▁step	-9.87666
▁cold	-9.87667
▁fantasy	-9.87694
▁bland	-9.87713
▁nonsense	-9.87714
▁language	-9.87734
▁professional	-9.8778
▁Night	-9.87805
▁scenery	-9.87848
▁rape	-9.87866
▁sell	-9.87887
ise	-9.87997
▁honestly	-9.88118
▁missed	-9.88232
▁doctor	-9.88317
ak	-9.88346
▁location	-9.88376
▁detail	-9.88391
ail	-9.88413
▁Did	-9.88528
▁Day	-9.88685
cy	-9.88709
▁makers	-9.88925
▁pi	-9.88927
▁pieces	-9.89038
ning	-9.89208
iz	-9.89367
AR	-9.89928
va	-9.90114
what	-9.90313
▁Z	-9.90389
▁allow	-9.90401
_	-9.90498
tion	-9.90509
director	-9.90512
▁monsters	-9.90537
Well	-9.90591
▁Y	-9.90804
▁Sam	-9.90812
▁Space	-9.90852
▁program	-9.90974
▁Bill	-9.91071
▁club	-9.91092
▁exciting	-9.91092
▁suspect	-9.91093
▁thin	-9.91107
▁unfunny	-9.91112
▁cave	-9.91115
▁grace	-9.91117
▁force	-9.9113
▁join	-9.91133
▁Bruce	-9.91164
▁Dracula	-9.91164
▁Jane	-9.91186
▁flow	-9.91187
▁Guy	-9.91196
▁soft	-9.91198
▁brutal	-9.91199
▁pop	-9.9127
All	-9.91285
▁seconds	-9.91296
▁race	-9.91345
▁outside	-9.91416
▁More	-9.9145
▁Any	-9.9145
ame	-9.91474
LY	-9.91498
▁allowed	-9.91552
how	-9.91559
▁names	-9.91723
▁Ro	-9.91767
▁vi	-9.91858
▁choice	-9.91874
▁ball	-9.91885
▁bird	-9.91901
her	-9.92094
▁mo	-9.92108
▁cost	-9.92124
▁Love	-9.92184
▁teenagers	-9.92302
▁alive	-9.92307
▁ru	-9.92414
ming	-9.92469
▁YOU	-9.92549
ac	-9.9273
▁driv	-9.93174
ize	-9.93377
che	-9.93408
▁80'	-9.93506
use	-9.9367
▁design	-9.93763
▁students	-9.94057
house	-9.94096
Now	-9.94116
▁truck	-9.94128
ina	-9.94155
ball	-9.94233
▁Can	-9.9447
▁depict	-9.94611
▁desperate	-9.94663
▁genuine	-9.94663
▁narrative	-9.94663
▁chemistry	-9.94664
▁literally	-9.94665
▁pair	-9.94675
▁jail	-9.94676
▁stock	-9.94677
▁insane	-9.94681
▁season	-9.94682
▁boat	-9.94684
▁uninteresting	-9.94697
▁Take	-9.94705
▁photography	-9.9472
▁ultimately	-9.94734
▁mystery	-9.94739
▁African	-9.94744
▁era	-9.94767
▁edited	-9.94805
▁disgusting	-9.9481
mm	-9.94818
▁Blood	-9.94824
▁Martin	-9.94854
▁Jones	-9.94864
▁focus	-9.94865
▁w	-9.94881
▁mission	-9.94883
▁ran	-9.94966
▁treated	-9.94986
▁portrayed	-9.94997
▁utterly	-9.95056
ony	-9.95129
▁accident	-9.95301
▁eating	-9.9534
▁keeps	-9.95374
▁singing	-9.95464
▁appeared	-9.95557
ler	-9.95568
▁wall	-9.95669
▁dream	-9.95698
▁animal	-9.95704
▁nucle	-9.95883
eep	-9.96046
bit	-9.96049
men	-9.96072
ions	-9.96094
ship	-9.96261
ong	-9.96272
▁revolve	-9.96295
ep	-9.96662
No	-9.96801
▁news	-9.96846
▁bits	-9.97022
▁laughed	-9.97315
▁logic	-9.97363
ors	-9.97503
ec	-9.97598
▁Chris	-9.97724
▁record	-9.9774
American	-9.97787
▁charm	-9.97813
idden	-9.97824
▁develop	-9.97891
▁listen	-9.97892
▁junk	-9.97905
One	-9.97996
▁apparent	-9.98017
▁absolute	-9.98019
au	-9.98023
▁pan	-9.98158
▁product	-9.98318
▁host	-9.98356
▁author	-9.98362
▁accurate	-9.98367
▁contrived	-9.98367
▁regular	-9.98367
▁society	-9.98367
▁promising	-9.98367
▁heavy	-9.98367
▁boyfriend	-9.98367
▁Power	-9.98367
▁content	-9.98367
▁presence	-9.98367
▁asleep	-9.98368
▁difference	-9.98368
▁imagination	-9.98368
▁tension	-9.9837
▁blind	-9.98372
▁studio	-9.98397
▁dad	-9.98398
▁office	-9.98402
▁cinematic	-9.98405
▁thus	-9.98411
▁reach	-9.98421
▁Disney	-9.98423
▁street	-9.98429
▁eventually	-9.9844
▁frame	-9.98441
▁station	-9.98442
▁machine	-9.98445
▁Other	-9.98462
▁Black	-9.98468
▁Despi	-9.98469
evin	-9.98522
▁moral	-9.98602
star	-9.98635
▁moves	-9.9871
▁clichéd	-9.98775
ED	-9.9892
EN	-9.98973
end	-9.99001
▁intended	-9.99086
ze	-9.99133
con	-9.99134
ile	-9.99161
▁blame	-9.99259
▁area	-9.9927
▁led	-9.99378
▁situations	-9.99389
▁track	-9.99455
▁adult	-9.99502
OR	-9.9956
rated	-9.99581
ung	-9.99638
ide	-9.99647
▁values	-9.99701
▁bo	-9.9986
over	-9.99955
▁ready	-9.99998
ery	-10.0005
▁lover	-10.0024
▁images	-10.0029
they	-10.0045
▁boo	-10.0079
ping	-10.008
▁dude	-10.0093
istic	-10.0098
▁magic	-10.01
10	-10.0159
X	-10.0159
▁hang	-10.0162
lly	-10.0166
making	-10.0167
▁deserves	-10.0168
▁sea	-10.0168
▁Kill	-10.0182
▁loose	-10.0185
▁involve	-10.019
▁Con	-10.0191
atur	-10.0197
▁survive	-10.0205
▁Angel	-10.0209
▁Lewis	-10.0221
▁London	-10.0221
▁Queen	-10.0221
▁approach	-10.0221
▁awkward	-10.0221
▁convince	-10.0221
▁mysterious	-10.0221
▁suicide	-10.0221
▁tedious	-10.0221
▁zero	-10.0221
▁indeed	-10.0221
▁search	-10.0222
▁Danny	-10.0222
▁enter	-10.0223
▁load	-10.0223
▁appearance	-10.0223
▁length	-10.0227
▁13	-10.0227
▁effective	-10.0227
rk	-10.0228
▁opportunity	-10.0228
▁Charlie	-10.0228
▁anywhere	-10.0229
▁Ch	-10.0232
▁afraid	-10.0234
▁Please	-10.0236
▁pretend	-10.0236
▁Hell	-10.0238
ight	-10.0238
▁army	-10.0238
▁phone	-10.0241
▁laughter	-10.0242
▁advice	-10.0242
▁drugs	-10.0246
AN	-10.0249
▁greatest	-10.0257
ham	-10.0263
▁recently	-10.0265
▁ti	-10.0267
▁endless	-10.0271
lock	-10.0276
gi	-10.0281
▁:	-10.0305
▁en	-10.0309
▁seat	-10.0319
▁murdered	-10.0324
▁include	-10.0347
▁blow	-10.0348
▁ghost	-10.0349
▁lu	-10.0358
uck	-10.0365
▁teen	-10.0378
▁ski	-10.0379
▁lighting	-10.0379
work	-10.0465
▁40	-10.0469
ey	-10.0492
ute	-10.0513
low	-10.0515
▁Ba	-10.0521
▁featur	-10.0527
▁roll	-10.0556
▁drink	-10.0559
▁tr	-10.056
Some	-10.0565
▁100	-10.0567
Oh	-10.0574
looking	-10.0577
▁natural	-10.0585
▁clichés	-10.0599
starring	-10.0606
▁favor	-10.0621
▁red	-10.0621
▁complex	-10.0621
▁horribly	-10.0621
▁likable	-10.0621
▁nobody	-10.0621
▁serial	-10.0621
▁dreadful	-10.0621
▁intelligence	-10.0621
▁Girl	-10.0621
▁government	-10.0621
▁tape	-10.0621
▁naked	-10.0621
▁push	-10.0621
▁relative	-10.0622
▁culture	-10.0623
▁Paris	-10.0624
▁Howard	-10.0625
▁bank	-10.0625
▁Kane	-10.0625
▁personality	-10.0625
▁Out	-10.0627
▁Good	-10.0627
▁screenwriter	-10.0628
▁unlike	-10.063
▁People	-10.0632
▁Moon	-10.0632
▁familiar	-10.0633
▁sight	-10.0634
▁stinker	-10.0636
▁correct	-10.0637
▁Jr	-10.064
▁rental	-10.0642
▁band	-10.0647
▁ability	-10.0649
▁letter	-10.0657
ible	-10.066
▁below	-10.0663
▁generally	-10.0677
▁suck	-10.0685
▁rid	-10.0688
▁`	-10.0693
▁return	-10.0712
ving	-10.0718
lie	-10.0721
rap	-10.0751
▁whom	-10.0751
fa	-10.0758
▁gangster	-10.0761
▁criminal	-10.0763
▁contain	-10.0768
▁producer	-10.0789
▁Mc	-10.0797
we	-10.0824
▁Bob	-10.0825
▁helped	-10.0851
▁acts	-10.0852
ities	-10.0858
pp	-10.0862
Do	-10.0871
fully	-10.0883
▁su	-10.0884
▁skip	-10.089
▁details	-10.0945
cing	-10.0949
▁("	-10.0965
▁remains	-10.0966
pi	-10.0968
▁steal	-10.0975
Overall	-10.0979
year	-10.098
back	-10.0984
good	-10.0991
▁reveal	-10.0992
core	-10.1003
▁drunk	-10.1034
▁chick	-10.1036
▁commit	-10.1036
▁everybody	-10.1038
▁evidence	-10.1038
▁technical	-10.1038
▁thousand	-10.1038
▁clean	-10.1038
▁innocent	-10.1038
▁awesome	-10.1038
▁network	-10.1038
▁bodies	-10.1038
▁mountain	-10.1038
▁available	-10.1038
▁curious	-10.1038
▁1950	-10.1039
▁failure	-10.1039
▁stuck	-10.1039
▁six	-10.104
▁fame	-10.1041
▁reaction	-10.1043
▁impressive	-10.1045
▁Miss	-10.1045
▁Russian	-10.1046
▁boss	-10.1046
TV	-10.1052
▁master	-10.1055
▁Never	-10.1056
▁unintentionally	-10.1057
▁Very	-10.1058
▁Dark	-10.1062
eg	-10.1074
▁driver	-10.1085
▁screaming	-10.109
ound	-10.109
▁noticed	-10.1091
▁wise	-10.1095
▁Time	-10.1098
▁X	-10.1102
see	-10.1105
▁directors	-10.1109
our	-10.1117
▁willing	-10.1119
▁soul	-10.1119
fest	-10.1124
▁10.	-10.115
▁planet	-10.1164
▁weapons	-10.1173
▁scare	-10.1181
ince	-10.1181
bout	-10.1182
▁Chan	-10.1212
▁fi	-10.1258
OL	-10.1259
▁Po	-10.126
▁Ann	-10.1286
▁adventure	-10.1292
ward	-10.1294
▁Ri	-10.1295
dom	-10.1295
▁hat	-10.1298
▁Har	-10.1312
▁bear	-10.1337
▁met	-10.134
▁adds	-10.1341
ped	-10.1344
▁Red	-10.136
▁hunt	-10.1397
sen	-10.1406
screen	-10.1415
film	-10.1415
▁sympath	-10.1422
▁fool	-10.1426
▁Mad	-10.1435
▁historical	-10.1436
made	-10.1442
▁board	-10.1446
▁Rock	-10.1453
▁cry	-10.1456
▁gold	-10.147
▁consist	-10.1472
▁4/10	-10.1473
▁President	-10.1473
▁lesbian	-10.1473
▁addition	-10.1473
▁refuse	-10.1473
▁Two	-10.1473
▁discuss	-10.1473
▁jerk	-10.1473
▁AND	-10.1473
▁wander	-10.1473
▁window	-10.1473
▁green	-10.1473
▁switch	-10.1473
▁caught	-10.1474
▁edge	-10.1474
▁assume	-10.1474
▁excited	-10.1475
Next	-10.1476
▁mock	-10.1476
▁dare	-10.1477
▁Horror	-10.1477
▁grand	-10.1477
▁Ne	-10.1477
ction	-10.1479
▁Ryan	-10.1479
▁masterpiece	-10.148
▁broken	-10.1482
▁Show	-10.1484
▁Paul	-10.1484
▁road	-10.1485
▁Hav	-10.1485
▁Wow	-10.1486
▁limited	-10.1488
▁loser	-10.149
▁Still	-10.1497
▁teacher	-10.1499
▁field	-10.15
▁Matt	-10.1507
▁hopes	-10.1509
ept	-10.1511
▁Park	-10.1514
***	-10.1516
▁knowing	-10.152
▁Anyway	-10.1522
▁Sh	-10.1527
??	-10.1543
cent	-10.155
ual	-10.1557
▁bloody	-10.1558
▁shocking	-10.156
cul	-10.1561
An	-10.1575
▁explained	-10.1576
▁Mi	-10.1608
▁forever	-10.1619
......	-10.1623
▁followed	-10.1624
▁earn	-10.1631
▁aim	-10.1633
▁rated	-10.1637
bs	-10.164
▁fights	-10.166
ought	-10.1662
▁member	-10.1674
▁brothers	-10.1681
▁farm	-10.1682
▁flaws	-10.1689
▁aspects	-10.1701
▁Dan	-10.1707
though	-10.1718
▁issues	-10.1726
fer	-10.1743
ory	-10.1752
grade	-10.1757
▁v	-10.1771
▁prefer	-10.1786
▁cops	-10.179
▁whi	-10.1793
▁sum	-10.1795
▁dies	-10.1805
oth	-10.1805
ip	-10.1809
▁tone	-10.1816
▁zombies	-10.1852
ied	-10.1857
▁Sci	-10.1861
gging	-10.1864
▁faces	-10.1866
▁arts	-10.1882
▁aside	-10.1883
night	-10.1887
▁gl	-10.1892
▁sta	-10.191
▁teenage	-10.1921
▁pen	-10.1922
▁Saudi	-10.1927
▁central	-10.1927
▁encounter	-10.1927
▁energy	-10.1927
▁franchise	-10.1927
▁irritating	-10.1927
▁married	-10.1927
▁negative	-10.1927
▁regret	-10.1927
▁vehicle	-10.1927
▁beauty	-10.1927
▁rival	-10.1927
▁pilot	-10.1927
▁double	-10.1927
▁memory	-10.1927
▁current	-10.1927
▁center	-10.1927
▁therefore	-10.1928
▁service	-10.1928
▁alright	-10.1928
▁Norris	-10.1928
▁terrific	-10.1928
▁minor	-10.1928
▁continuity	-10.1928
▁Robin	-10.1929
▁unique	-10.1929
▁Jackson	-10.1931
▁statement	-10.1931
▁bright	-10.1931
▁Actually	-10.1932
▁Catherine	-10.1932
▁impact	-10.1933
▁artistic	-10.1934
▁genius	-10.1934
bad	-10.1935
▁plus	-10.194
▁officer	-10.1941
▁Yeah	-10.1943
▁yeah	-10.1943
▁Director	-10.1943
▁45	-10.1944
▁Was	-10.1945
▁freak	-10.1945
▁****	-10.1951
▁Does	-10.1954
▁City	-10.1955
▁Ni	-10.1956
▁originality	-10.1957
▁II	-10.196
▁ON	-10.1965
▁actresses	-10.1968
▁developed	-10.1984
▁finished	-10.1994
▁telling	-10.1995
▁personally	-10.1995
▁lock	-10.2001
wood	-10.2002
▁beach	-10.2004
▁j	-10.2014
▁higher	-10.2016
ST	-10.2018
▁seeming	-10.2026
▁May	-10.2028
▁presented	-10.2029
▁stereotypes	-10.2037
▁according	-10.2042
▁Come	-10.2042
ink	-10.2047
▁lived	-10.2053
▁bothered	-10.2061
▁spin	-10.2066
▁Ar	-10.2067
▁li	-10.207
▁warm	-10.2072
▁terms	-10.2075
▁unrealistic	-10.2091
▁Mel	-10.2098
▁paint	-10.2101
▁hated	-10.2103
▁pet	-10.2104
▁Sa	-10.2137
▁issue	-10.2143
▁standard	-10.215
vo	-10.2165
▁ill	-10.2178
▁ba	-10.2189
void	-10.219
▁artist	-10.2197
▁Sp	-10.2211
▁Ho	-10.2219
▁contains	-10.2232
▁likely	-10.2234
▁feelings	-10.2277
▁Fe	-10.2288
▁im	-10.2303
action	-10.2318
▁grat	-10.2329
▁Bar	-10.2335
plot	-10.2345
Where	-10.2345
style	-10.2345
Why	-10.2346
played	-10.2349
ried	-10.2353
▁Tim	-10.2367
▁fift	-10.2385
▁bore	-10.2388
▁gra	-10.2396
▁punch	-10.2397
terribly	-10.2403
▁Texas	-10.2403
▁Wayne	-10.2403
▁cheese	-10.2403
▁comparison	-10.2403
▁dancing	-10.2403
▁embarrassed	-10.2403
▁motivation	-10.2403
▁necessary	-10.2403
▁teeth	-10.2403
▁unnecessary	-10.2403
▁Fox	-10.2403
▁device	-10.2403
▁Zoey	-10.2404
▁root	-10.2404
▁football	-10.2404
▁somebody	-10.2404
▁Adam	-10.2404
▁Moses	-10.2405
▁responsible	-10.2405
▁Devil	-10.2405
▁screw	-10.2405
▁rise	-10.2405
▁witty	-10.2405
▁Barry	-10.2405
▁Yet	-10.2406
▁60	-10.2406
▁coach	-10.2407
▁slapstick	-10.2408
▁graphic	-10.2409
▁Halloween	-10.2411
▁sent	-10.2411
▁anymore	-10.2412
▁goofy	-10.2413
▁Okay	-10.2414
▁choose	-10.2415
▁Lone	-10.2416
▁DO	-10.2417
▁social	-10.2419
dead	-10.2425
▁mildly	-10.2426
▁becoming	-10.2427
▁owner	-10.2429
▁damn	-10.2434
▁wide	-10.2441
▁Get	-10.2462
▁soap	-10.2463
▁designed	-10.2466
▁destroyed	-10.2472
▁scared	-10.2472
▁?	-10.2473
ax	-10.2473
▁bull	-10.2487
▁provided	-10.2487
▁law	-10.249
▁murderer	-10.2497
▁sequels	-10.2503
▁portray	-10.251
▁Stan	-10.2514
ean	-10.2523
▁poster	-10.2524
▁inept	-10.2525
hoo	-10.2537
uring	-10.2559
▁critics	-10.2561
ale	-10.2562
▁ahead	-10.2564
▁Vi	-10.257
▁slowly	-10.2586
▁renting	-10.259
▁ruin	-10.2592
▁heads	-10.2596
▁note	-10.2599
ical	-10.2601
▁claim	-10.2607
▁asks	-10.2611
▁worthy	-10.2615
▁Americans	-10.2616
ging	-10.2622
▁Oscar	-10.2623
▁element	-10.2636
▁rescue	-10.2639
RA	-10.2657
?).	-10.2659
▁le	-10.2661
▁spirit	-10.2664
▁standards	-10.2682
%	-10.2714
▁Ka	-10.2726
▁guns	-10.2726
▁adults	-10.2751
▁understanding	-10.2764
port	-10.2776
▁costs	-10.2779
▁Cat	-10.2799
vin	-10.2802
é	-10.2807
▁imp	-10.2825
▁scream	-10.2842
life	-10.2846
Whi	-10.2847
▁extras	-10.2848
▁treat	-10.2857
▁concern	-10.2858
▁quick	-10.2869
ump	-10.2869
let	-10.287
▁stink	-10.2886
▁base	-10.2886
read	-10.289
▁Mac	-10.2895
▁fiction	-10.2895
#	-10.29
▁amateur	-10.2901
▁object	-10.2902
▁represent	-10.2902
▁drop	-10.2903
▁Nicole	-10.2903
▁3/10	-10.2903
▁Hitchcock	-10.2903
▁Little	-10.2903
▁abysmal	-10.2903
▁disbelief	-10.2903
▁hundred	-10.2903
▁individual	-10.2903
▁knock	-10.2903
▁revenge	-10.2903
▁crowd	-10.2903
▁ALL	-10.2904
▁priest	-10.2904
▁paper	-10.2904
▁surround	-10.2904
▁wild	-10.2904
▁native	-10.2904
▁hospital	-10.2904
▁vague	-10.2904
▁instance	-10.2904
▁Jerry	-10.2904
▁opposite	-10.2904
▁legend	-10.2904
▁Larry	-10.2904
▁decade	-10.2904
▁Roger	-10.2904
▁surface	-10.2904
▁massive	-10.2905
▁fellow	-10.2905
▁attractive	-10.2905
▁stereotypical	-10.2905
▁crack	-10.2905
▁Brian	-10.2906
▁expert	-10.2906
▁halfway	-10.2908
▁plastic	-10.2908
▁Bible	-10.2911
▁tw	-10.2914
▁Though	-10.2915
uous	-10.2922
▁Rick	-10.2922
▁powerful	-10.2923
▁introduced	-10.2925
▁lesson	-10.2929
▁sympathy	-10.2931
▁bigger	-10.2933
▁hint	-10.2934
▁Rand	-10.2937
▁key	-10.2938
ral	-10.2941
▁ratings	-10.2953
▁forgotten	-10.2954
▁campy	-10.2967
▁Overall	-10.2976
ries	-10.2977
▁beside	-10.2987
▁offend	-10.2994
▁showed	-10.3
);	-10.3038
▁na	-10.3041
!).	-10.3048
▁k	-10.305
di	-10.3051
▁fail	-10.3052
▁Fa	-10.308
▁saved	-10.3085
▁gr	-10.3086
don	-10.3087
▁TO	-10.3089
▁ice	-10.3089
▁Hard	-10.3095
az	-10.3098
▁van	-10.3102
▁separate	-10.3108
▁older	-10.3109
▁pe	-10.3111
▁sin	-10.312
igh	-10.312
ON	-10.3123
▁kick	-10.3124
mate	-10.3125
▁idiot	-10.3151
▁commercial	-10.3157
▁image	-10.316
▁hire	-10.3175
▁spot	-10.3176
▁filmmaker	-10.3191
▁Dian	-10.3195
▁hey	-10.3227
iness	-10.3238
are	-10.3242
**	-10.3249
row	-10.3253
▁carrie	-10.3256
▁Pre	-10.326
nch	-10.3286
▁aspect	-10.3289
act	-10.3295
▁Roberts	-10.3295
where	-10.3337
▁emotions	-10.334
list	-10.334
▁intention	-10.3343
▁Am	-10.3346
▁Will	-10.3352
pro	-10.3359
Z	-10.3369
while	-10.3369
!!!!	-10.337
Anyway	-10.3371
den	-10.3372
However	-10.3373
comedy	-10.3373
That	-10.3373
▁accept	-10.338
ja	-10.3402
▁luck	-10.3408
▁em	-10.3418
car	-10.3423
▁formula	-10.3426
▁exploit	-10.3428
pecial	-10.3428
▁occur	-10.3429
▁hide	-10.343
▁virtual	-10.343
▁Thomas	-10.343
▁empty	-10.343
▁generous	-10.343
▁influence	-10.343
▁psycho	-10.343
▁qualities	-10.343
▁research	-10.343
▁silent	-10.343
▁succeed	-10.343
▁twenty	-10.343
▁unconvincing	-10.343
▁uninspired	-10.343
▁sweet	-10.343
▁affair	-10.343
▁numero	-10.343
▁born	-10.343
▁Barney	-10.3431
▁merit	-10.3431
▁tree	-10.3431
▁Ranger	-10.3431
▁trick	-10.3432
▁Mike	-10.3432
there	-10.3432
▁shut	-10.3433
▁attract	-10.3435
▁conflict	-10.3435
▁hack	-10.3436
▁dirty	-10.3438
▁USA	-10.344
▁chosen	-10.3442
▁compelling	-10.3442
▁grave	-10.3444
▁Fr	-10.3445
▁SPOILERS	-10.3445
▁Evan	-10.3445
▁impressed	-10.3446
▁Really	-10.3447
▁lovely	-10.3451
▁passion	-10.3454
▁Look	-10.3459
▁useless	-10.3459
▁warned	-10.346
▁gory	-10.3463
▁trust	-10.3463
▁Sadly	-10.3467
▁wit	-10.3473
▁concerned	-10.3478
▁incredible	-10.348
▁Part	-10.3486
▁revealed	-10.3488
▁Avoid	-10.3495
▁Cor	-10.3496
▁justice	-10.3499
▁du	-10.35
att	-10.3501
▁shower	-10.3519
▁_	-10.3522
▁Satan	-10.3524
▁praise	-10.3538
izing	-10.3548
zy	-10.3556
▁skills	-10.3557
▁Uni	-10.3567
▁grade	-10.3572
ita	-10.358
▁2.	-10.3586
▁thanks	-10.36
ich	-10.3612
▁Ta	-10.3612
▁buying	-10.3625
▁calls	-10.3669
▁flaw	-10.3671
50	-10.3673
▁tend	-10.3676
▁arm	-10.3677
▁protagonist	-10.3707
▁subplot	-10.3708
▁bag	-10.371
▁recommended	-10.3725
har	-10.3733
▁Williams	-10.3745
▁u	-10.375
▁Dar	-10.376
▁cla	-10.3765
RE	-10.3765
ain	-10.3773
▁protect	-10.379
gotten	-10.3801
▁Cha	-10.3802
▁believed	-10.3806
▁Big	-10.3816
ture	-10.3829
▁animals	-10.3833
nce	-10.3834
▁loves	-10.3835
set	-10.3843
▁locations	-10.3864
▁cares	-10.3871
They	-10.3894
gar	-10.3895
La	-10.3898
face	-10.39
very	-10.3903
▁crash	-10.3915
dimensional	-10.3924
real	-10.3935
▁surprising	-10.395
▁abuse	-10.3953
▁capture	-10.3955
▁Bu	-10.3961
ven	-10.3964
away	-10.3978
▁relate	-10.3979
Un	-10.3981
▁breath	-10.3984
▁youth	-10.3984
▁wanna	-10.3984
▁bin	-10.3985
▁Bullock	-10.3985
▁THIS	-10.3985
▁Vampire	-10.3985
▁associate	-10.3985
▁corpse	-10.3985
▁offensive	-10.3985
▁repetitive	-10.3985
▁routine	-10.3985
▁system	-10.3985
▁target	-10.3985
▁wreck	-10.3985
▁atrocious	-10.3985
▁task	-10.3985
▁Cinema	-10.3985
▁pacing	-10.3985
▁FBI	-10.3985
▁gross	-10.3985
▁guest	-10.3985
▁nasty	-10.3985
▁account	-10.3986
▁superior	-10.3986
▁detective	-10.3986
▁began	-10.3986
▁fresh	-10.3986
▁Stone	-10.3986
▁sentence	-10.3986
▁creative	-10.3987
▁treatment	-10.3987
▁comedian	-10.3987
▁tight	-10.3988
▁dump	-10.3988
▁commentary	-10.3989
▁sitcom	-10.3989
▁Gold	-10.399
▁1970	-10.399
▁advise	-10.3991
▁highlight	-10.3991
▁Dame	-10.3992
▁Max	-10.3992
▁thoroughly	-10.3993
▁amaze	-10.3993
▁Jackie	-10.3993
▁generation	-10.3995
▁hotel	-10.3995
▁Karen	-10.3995
▁lift	-10.3997
▁aware	-10.3998
▁corny	-10.4001
▁table	-10.4001
▁experiment	-10.4003
▁Angela	-10.4004
▁cable	-10.4007
▁model	-10.4007
rate	-10.4009
▁Second	-10.4011
▁mom	-10.4015
▁None	-10.4016
▁foot	-10.4022
▁share	-10.4023
▁Ti	-10.4024
▁surprisingly	-10.4026
▁hits	-10.4029
▁Rod	-10.4036
▁Fu	-10.4042
▁singer	-10.4046
▁Bam	-10.4049
▁Joan	-10.4052
▁delivers	-10.4056
▁Ray	-10.4058
Let	-10.4059
ress	-10.4087
ford	-10.4088
▁bl	-10.409
existent	-10.4095
▁audiences	-10.4097
ix	-10.4104
▁sleeping	-10.4113
ane	-10.4119
▁fe	-10.4126
▁core	-10.4128
▁twists	-10.4134
▁dollars	-10.4136
long	-10.4139
ious	-10.4143
▁talks	-10.4146
00	-10.4155
Ha	-10.4172
ky	-10.418
▁aliens	-10.419
▁Hu	-10.4197
▁button	-10.422
▁par	-10.4223
▁Count	-10.4227
▁para	-10.4243
▁fantastic	-10.4268
▁IT	-10.427
▁se	-10.4274
oh	-10.4285
lon	-10.4289
▁1.	-10.4292
▁angle	-10.4301
.....	-10.4308
hip	-10.4316
▁meeting	-10.4322
under	-10.4336
▁Boy	-10.4376
▁Je	-10.4379
liners	-10.4379
▁Wi	-10.4387
▁themes	-10.439
aving	-10.4402
▁player	-10.4407
On	-10.4447
▁actions	-10.4462
▁seek	-10.4462
tribute	-10.4463
rapped	-10.4477
boy	-10.4493
▁See	-10.4498
▁complain	-10.4509
roll	-10.4512
▁Hal	-10.4515
Maybe	-10.4515
especially	-10.4516
Jack	-10.4517
fight	-10.452
she	-10.4528
▁Pu	-10.4531
▁raise	-10.4544
▁command	-10.4546
▁chi	-10.4558
▁compare	-10.4559
miss	-10.4564
oy	-10.4568
type	-10.4569
▁predict	-10.4569
▁Arnold	-10.4574
▁Murphy	-10.4574
▁Solomon	-10.4574
▁Taylor	-10.4574
▁Wagner	-10.4574
▁Women	-10.4574
▁assistant	-10.4574
▁gruesome	-10.4574
▁horrid	-10.4574
▁martial	-10.4574
▁poverty	-10.4574
▁print	-10.4574
▁quote	-10.4574
▁Brown	-10.4574
▁cheerlead	-10.4574
▁belief	-10.4574
▁funnier	-10.4574
▁egg	-10.4574
▁Helsing	-10.4574
▁incident	-10.4574
▁source	-10.4574
▁Captain	-10.4574
▁parody	-10.4574
▁solid	-10.4574
▁splatter	-10.4574
▁General	-10.4574
▁Ninja	-10.4574
▁Western	-10.4574
▁morning	-10.4574
▁flesh	-10.4574
▁replace	-10.4574
▁1960	-10.4574
▁THAT	-10.4574
▁borrow	-10.4575
▁Qui	-10.4575
▁jo	-10.4575
▁blah	-10.4575
▁Edward	-10.4575
▁Tommy	-10.4575
▁propaganda	-10.4576
▁theatre	-10.4577
▁existence	-10.4577
▁fix	-10.4577
▁relief	-10.4577
▁Everyone	-10.4577
▁idiotic	-10.4578
▁essentially	-10.4579
▁UK	-10.458
▁Noah	-10.458
▁safe	-10.4581
▁Sound	-10.4584
▁lies	-10.4586
▁pile	-10.4586
▁tank	-10.4588
▁independent	-10.4588
▁gather	-10.459
▁drawn	-10.459
▁loss	-10.4591
▁Poor	-10.4592
▁smile	-10.4592
▁Dien	-10.4593
atch	-10.4596
▁Boll	-10.4596
▁reporter	-10.4597
▁mindless	-10.4597
▁rank	-10.4602
▁rushed	-10.4603
▁captured	-10.4606
▁stupidity	-10.461
▁Sheen	-10.4613
▁recall	-10.4614
▁judge	-10.4618
▁Bay	-10.4623
bar	-10.4624
▁mile	-10.4625
▁flying	-10.4625
lia	-10.4629
▁ruined	-10.463
▁Fred	-10.4632
▁cringe	-10.4637
cra	-10.4647
run	-10.4648
▁crying	-10.4659
▁rolling	-10.4667
▁previously	-10.468
▁realized	-10.4681
hu	-10.4697
▁El	-10.4699
▁solve	-10.47
live	-10.4709
▁def	-10.4723
tended	-10.473
▁suffers	-10.4753
▁Mu	-10.476
lf	-10.4763
▁puppets	-10.4768
ative	-10.4783
▁references	-10.4785
Then	-10.4793
▁card	-10.4793
▁leg	-10.4803
▁cur	-10.4803
▁gal	-10.4806
▁blo	-10.4808
unk	-10.4809
▁talents	-10.4812
▁scripted	-10.4818
▁numbers	-10.4819
▁site	-10.4847
▁caus	-10.4849
▁angles	-10.4854
▁Na	-10.4874
ged	-10.4877
than	-10.4883
▁players	-10.4885
▁commercials	-10.4889
20	-10.4911
▁expression	-10.4924
▁costume	-10.493
▁dec	-10.4938
▁Pal	-10.494
▁soldier	-10.4959
filled	-10.4992
▁Men	-10.4995
▁Ber	-10.5004
head	-10.5006
▁ya	-10.5019
▁Sha	-10.5035
air	-10.5038
▁sole	-10.507
▁repeat	-10.5088
▁den	-10.5089
▁burn	-10.509
play	-10.5092
▁weeks	-10.5098
▁struggle	-10.5098
▁vampires	-10.5116
▁draw	-10.5118
ux	-10.5123
▁scar	-10.5138
First	-10.514
Also	-10.5141
Just	-10.5141
John	-10.5141
horror	-10.5141
▁rob	-10.5141
watch	-10.5144
Avoid	-10.5147
ET	-10.5149
▁stretch	-10.5151
▁connect	-10.5152
▁Are	-10.5152
▁wrestl	-10.5159
▁sudden	-10.5163
▁exact	-10.5165
▁proper	-10.5168
Fi	-10.5188
Yes	-10.5193
entific	-10.5195
▁melodrama	-10.5197
▁intriguing	-10.5199
Spoiler	-10.5199
▁Campbell	-10.5199
▁Washington	-10.5199
▁astronaut	-10.5199
▁buddies	-10.5199
▁colour	-10.5199
▁competition	-10.5199
▁depressing	-10.5199
▁exercise	-10.5199
▁helicopter	-10.5199
▁implausible	-10.5199
▁jungle	-10.5199
▁ludicrous	-10.5199
▁newspaper	-10.5199
▁pitiful	-10.5199
▁position	-10.5199
▁religious	-10.5199
▁strength	-10.5199
▁summary	-10.5199
▁unusual	-10.5199
▁variety	-10.5199
▁downhill	-10.5199
▁Again	-10.5199
▁Sandra	-10.5199
▁stiff	-10.5199
▁contact	-10.5199
▁Jesse	-10.5199
▁clothing	-10.5199
▁court	-10.5199
▁cruel	-10.5199
▁ashamed	-10.5199
▁crude	-10.5199
▁shark	-10.5199
▁Grade	-10.5199
▁risk	-10.5199
▁Yep	-10.5199
▁forgot	-10.5199
▁twice	-10.52
▁Would	-10.52
▁terrorist	-10.52
▁fuel	-10.5201
▁collection	-10.5201
▁stopped	-10.5201
▁relie	-10.5202
▁spare	-10.5204
▁drags	-10.5204
▁chicken	-10.5204
▁Stupid	-10.5204
▁spoof	-10.5204
▁foreign	-10.5205
▁animated	-10.5206
▁stolen	-10.5207
▁demand	-10.5208
▁intellectual	-10.5208
▁Tony	-10.521
▁prepared	-10.5212
▁guilty	-10.5212
▁latter	-10.5212
▁danger	-10.5215
▁test	-10.5215
▁Friday	-10.5216
▁pity	-10.522
▁manner	-10.5222
▁upset	-10.5225
▁PG	-10.5226
▁Sorry	-10.5227
▁worthless	-10.523
▁receive	-10.5231
▁rap	-10.5243
▁heroes	-10.5243
▁bu	-10.5245
▁warning	-10.5245
▁joy	-10.5248
▁ja	-10.5265
cat	-10.5265
▁emotionally	-10.5277
other	-10.5281
▁anger	-10.5288
▁op	-10.5295
▁Brooks	-10.5296
ino	-10.5308
more	-10.5309
▁focused	-10.531
▁ob	-10.5313
LE	-10.5317
▁Jenn	-10.5318
▁comical	-10.5341
▁Gar	-10.5347
▁Ste	-10.5351
▁learned	-10.5356
▁sun	-10.536
How	-10.5367
berg	-10.5371
ple	-10.538
▁accents	-10.5384
▁flashbacks	-10.5406
▁Ms	-10.5418
▁closed	-10.5421
▁range	-10.5432
▁Ru	-10.5435
▁speaking	-10.5442
▁mob	-10.5442
▁games	-10.5448
tri	-10.5451
▁stands	-10.5463
▁strip	-10.5468
▁arrive	-10.5468
bu	-10.5476
ool	-10.5477
▁Sid	-10.5483
▁IN	-10.5493
ire	-10.5519
▁tie	-10.5544
▁fund	-10.5552
▁dim	-10.5563
▁color	-10.5568
hard	-10.5578
▁bite	-10.5582
▁conversation	-10.5588
▁medic	-10.56
hand	-10.5614
▁preci	-10.5633
Ba	-10.5641
▁ne	-10.5642
▁ghosts	-10.5645
▁cameo	-10.5648
▁includes	-10.5667
▁Ted	-10.567
▁Alex	-10.5687
▁4.	-10.5692
nyone	-10.5696
cious	-10.5721
▁focuse	-10.5728
1)	-10.5729
▁beer	-10.5742
▁places	-10.5747
▁Gra	-10.5755
down	-10.5758
called	-10.5763
▁pal	-10.577
▁3.	-10.5772
come	-10.5784
▁spoil	-10.5801
inger	-10.5804
school	-10.5804
After	-10.5807
▁Gi	-10.5807
board	-10.5808
With	-10.5808
▁Have	-10.5809
▁Hunt	-10.5809
worthy	-10.581
▁hook	-10.5811
law	-10.5827
rry	-10.5829
▁wound	-10.583
▁mental	-10.5832
▁speech	-10.5862
▁Cameron	-10.5865
▁Chinese	-10.5865
▁Kennedy	-10.5865
▁Pinhead	-10.5865
▁Sheriff	-10.5865
▁Tanzania	-10.5865
▁Wilson	-10.5865
▁celluloid	-10.5865
▁childhood	-10.5865
▁climb	-10.5865
▁decision	-10.5865
▁determine	-10.5865
▁fascinating	-10.5865
▁generic	-10.5865
▁incoherent	-10.5865
▁miserably	-10.5865
▁puzzle	-10.5865
▁recognize	-10.5865
▁reduce	-10.5865
▁smoke	-10.5865
▁spectacular	-10.5865
▁tragedy	-10.5865
▁village	-10.5865
▁Christmas	-10.5865
▁Three	-10.5865
▁harsh	-10.5865
▁ANY	-10.5865
▁prevent	-10.5865
▁queen	-10.5865
▁dozen	-10.5865
▁excessive	-10.5866
▁miscast	-10.5866
▁shoe	-10.5866
▁dropped	-10.5866
▁satire	-10.5866
▁European	-10.5866
▁understood	-10.5866
▁scale	-10.5866
funniest	-10.5866
▁wake	-10.5867
▁Comedy	-10.5867
▁Hitch	-10.5867
▁feet	-10.5867
▁Mil	-10.5867
▁bash	-10.5868
▁dangerous	-10.5868
▁size	-10.5869
▁finger	-10.5869
▁seven	-10.5869
▁Jean	-10.5869
▁health	-10.587
▁Gein	-10.587
▁chest	-10.5871
▁flies	-10.5871
▁pleasure	-10.5872
▁Himesh	-10.5872
▁Vincent	-10.5872
▁Bix	-10.5873
▁dry	-10.5873
▁page	-10.5875
▁Awful	-10.5876
▁appropriate	-10.5877
▁vision	-10.5877
▁prisoners	-10.5878
▁Lord	-10.5879
▁dubbed	-10.588
▁comedic	-10.588
▁heroine	-10.5882
▁Otherwise	-10.5884
▁House	-10.5885
▁Read	-10.5885
kip	-10.5886
iest	-10.5887
▁heroic	-10.5887
▁Seriously	-10.5888
▁cream	-10.5888
▁White	-10.5889
▁Dog	-10.5891
▁critical	-10.5891
▁repeatedly	-10.5891
▁relationships	-10.5892
▁Ferr	-10.5894
▁drivel	-10.5898
retty	-10.5898
▁annoyed	-10.5899
▁rough	-10.5907
▁creatures	-10.5911
ook	-10.5912
▁suffering	-10.5912
▁farce	-10.5913
▁anybody	-10.5917
▁Thing	-10.5921
▁affect	-10.5924
▁Hunter	-10.5927
▁burning	-10.5933
▁cell	-10.5937
▁Par	-10.5937
▁Frank	-10.5938
▁suits	-10.5942
▁pian	-10.5948
▁flee	-10.5951
▁val	-10.5951
▁bucks	-10.5952
▁curse	-10.5958
▁Had	-10.5961
▁Mark	-10.5971
▁Sho	-10.5971
▁agreed	-10.5972
▁drinking	-10.5972
▁park	-10.5978
▁/	-10.5989
▁makeup	-10.5994
▁delivered	-10.5999
▁Many	-10.6004
▁Far	-10.6009
▁Tru	-10.6014
ou	-10.6027
▁months	-10.603
▁ham	-10.6031
▁offered	-10.6034
uh	-10.6053
▁cons	-10.6073
▁continues	-10.6074
▁Ex	-10.6085
▁Com	-10.6116
▁opera	-10.6118
▁lower	-10.6118
hy	-10.6124
zing	-10.6126
ium	-10.6133
hin	-10.6137
2)	-10.6151
▁gas	-10.6185
SE	-10.6199
ose	-10.6205
AD	-10.6207
▁Ram	-10.6208
At	-10.6209
▁Ken	-10.6247
▁ruins	-10.6248
▁ripp	-10.6258
▁disappear	-10.6259
Ho	-10.627
q	-10.6304
▁Hill	-10.631
▁Ty	-10.6316
▁flop	-10.6317
▁matters	-10.6353
too	-10.6365
▁lur	-10.6369
▁pee	-10.6392
AL	-10.6408
▁creat	-10.6433
TE	-10.6442
hal	-10.6461
▁Rid	-10.6464
cho	-10.6464
▁Sea	-10.6469
▁Per	-10.6483
make	-10.6507
▁Hey	-10.6509
gged	-10.6514
▁Liv	-10.6515
▁spit	-10.6515
view	-10.6516
funny	-10.652
place	-10.652
includ	-10.6521
just	-10.6521
mentioned	-10.6521
Unfortunately	-10.6521
▁bill	-10.6533
aked	-10.654
▁teach	-10.6546
▁desire	-10.6548
000	-10.655
▁faith	-10.6553
▁hype	-10.6553
▁sheer	-10.6561
was	-10.6566
▁Vietnam	-10.6567
▁Sure	-10.6572
▁flash	-10.6573
▁Julia	-10.6576
▁High	-10.6577
keleton	-10.6578
▁kidnap	-10.6578
▁charisma	-10.6578
▁chang	-10.6579
▁snow	-10.6579
▁pseudo	-10.658
▁advance	-10.658
▁corrupt	-10.658
▁horrendous	-10.658
▁silver	-10.658
▁stomach	-10.658
nosaur	-10.658
▁1980	-10.658
▁Gordon	-10.658
▁Jessica	-10.658
▁MOVIE	-10.658
▁Spanish	-10.658
▁VHS	-10.658
▁church	-10.658
▁description	-10.658
▁disjointed	-10.658
▁enemies	-10.658
▁equipment	-10.658
▁execution	-10.658
▁favour	-10.658
▁horrific	-10.658
▁substance	-10.658
▁subtitles	-10.658
▁Blade	-10.658
▁dinner	-10.658
▁enemy	-10.658
▁miserable	-10.658
▁price	-10.658
▁recover	-10.658
itizen	-10.658
▁excruciating	-10.658
▁menacing	-10.658
▁Trek	-10.658
▁Henry	-10.658
▁forgettable	-10.658
▁convict	-10.658
▁multiple	-10.658
▁environment	-10.658
▁cowboy	-10.658
▁tongue	-10.658
▁Dutch	-10.658
▁NOTHING	-10.658
▁menace	-10.658
▁sword	-10.658
▁section	-10.658
▁stunning	-10.658
▁blockbuster	-10.6581
▁forgive	-10.6581
▁degree	-10.6581
▁lazy	-10.6581
▁trial	-10.6581
▁Coward	-10.6581
▁France	-10.6581
▁afore	-10.6581
▁wealth	-10.6582
▁naive	-10.6582
▁sacrifice	-10.6582
▁meaningful	-10.6582
▁fo	-10.6583
▁Right	-10.6584
▁#1	-10.6585
▁fade	-10.6586
▁Tarantino	-10.6586
▁Tarzan	-10.6586
▁tasteless	-10.6589
▁Someone	-10.659
▁acceptable	-10.6591
▁Island	-10.6591
▁Family	-10.6595
grown	-10.6596
▁hopeless	-10.6598
▁Sale	-10.6601
▁possessed	-10.6602
▁23	-10.6603
▁cow	-10.6604
▁express	-10.6607
▁boob	-10.6608
▁haunted	-10.6609
acting	-10.6609
▁mass	-10.661
▁Which	-10.6611
ogan	-10.6612
▁occasionally	-10.6615
▁Myers	-10.6616
▁North	-10.6616
hed	-10.6617
▁raised	-10.6618
▁properly	-10.6621
▁Alien	-10.6622
▁Sex	-10.6623
▁char	-10.6624
▁pack	-10.6624
▁witch	-10.6628
▁weight	-10.6634
▁reasonable	-10.6637
▁investigate	-10.6638
▁semi	-10.6638
rupt	-10.664
▁/>*	-10.6641
▁Germany	-10.6647
▁lay	-10.6652
▁Carl	-10.6655
elve	-10.6658
ular	-10.6659
ulp	-10.666
cience	-10.6661
▁Pol	-10.6663
▁**	-10.6666
▁proved	-10.6673
▁portraying	-10.6674
▁11	-10.6691
▁amazingly	-10.6696
▁struggl	-10.6696
losing	-10.6697
▁z	-10.6702
fire	-10.6703
▁recording	-10.6704
▁perfectly	-10.6707
▁breasts	-10.6715
ifer	-10.6715
▁meat	-10.672
▁Give	-10.6739
▁twisted	-10.6741
OK	-10.6752
▁moved	-10.6762
▁Beth	-10.6772
▁throwing	-10.6774
▁Gl	-10.6775
▁dealing	-10.6786
col	-10.6794
▁heist	-10.6797
▁AT	-10.68
▁fly	-10.68
▁Make	-10.6805
name	-10.6809
▁ro	-10.6819
teen	-10.6828
▁hearing	-10.6831
characterization	-10.6843
ken	-10.6844
ana	-10.6856
▁standing	-10.6863
▁package	-10.6864
▁Gu	-10.6865
movies	-10.6866
▁plant	-10.6873
ology	-10.6883
▁Add	-10.6887
avi	-10.6895
▁Hol	-10.6895
▁villains	-10.6902
▁sw	-10.6913
rnie	-10.6929
▁translate	-10.6931
▁$2	-10.6957
bor	-10.6973
▁thrill	-10.6974
Mad	-10.6995
arian	-10.6998
▁Th	-10.7034
val	-10.7045
▁criminals	-10.7076
▁reference	-10.7076
▁teenager	-10.7092
▁blows	-10.7099
▁capabl	-10.7101
▁indicat	-10.7132
▁dreams	-10.7141
IE	-10.715
▁attempting	-10.7153
▁tear	-10.7155
Q	-10.7166
wee	-10.7167
▁Nor	-10.7187
▁forces	-10.719
pper	-10.7198
▁str	-10.7206
▁Movies	-10.7207
pped	-10.7239
▁entertain	-10.7243
▁porno	-10.7248
▁Luc	-10.726
thy	-10.7264
Be	-10.7266
▁president	-10.7266
▁bat	-10.7269
rash	-10.7283
till	-10.7285
▁market	-10.7289
when	-10.7291
onic	-10.7293
ease	-10.7295
UT	-10.7298
▁Ron	-10.7302
late	-10.731
▁physical	-10.7311
▁unintentional	-10.7313
▁constant	-10.7314
ations	-10.7315
▁nu	-10.7319
▁dislike	-10.7322
loved	-10.7323
wise	-10.7324
▁report	-10.7324
shot	-10.7326
▁bare	-10.7327
love	-10.7329
Although	-10.7329
▁broke	-10.7331
▁chose	-10.7334
▁tradition	-10.734
▁Charl	-10.7342
▁Swed	-10.7345
VERY	-10.7346
▁subtle	-10.7347
▁yell	-10.7348
▁photo	-10.7349
▁Japan	-10.7349
’	-10.7349
▁Church	-10.7349
▁Festival	-10.7349
▁Patterson	-10.7349
▁Travolta	-10.7349
▁behavior	-10.7349
▁credibility	-10.7349
▁dunno	-10.7349
▁engaging	-10.7349
▁financial	-10.7349
▁plague	-10.7349
▁restaurant	-10.7349
▁scenario	-10.7349
▁sleazy	-10.7349
▁superficial	-10.7349
▁supernatural	-10.7349
▁technology	-10.7349
▁Arbus	-10.7349
▁built	-10.7349
▁cousin	-10.7349
▁floor	-10.7349
▁glasses	-10.7349
▁epic	-10.7349
▁status	-10.7349
▁contest	-10.7349
▁nude	-10.7349
▁clown	-10.7349
▁extent	-10.7349
▁monkey	-10.7349
▁portion	-10.7349
▁convey	-10.7349
▁excitement	-10.7349
▁lawyer	-10.7349
▁introduction	-10.7349
▁challenge	-10.7349
▁intent	-10.7349
▁speed	-10.7349
▁racial	-10.7349
▁Hopper	-10.7349
▁Kurtz	-10.7349
▁installment	-10.7349
▁chief	-10.7349
▁community	-10.7349
▁Sarah	-10.735
▁neck	-10.7351
▁winning	-10.7351
▁Music	-10.7351
▁toilet	-10.7352
▁Norman	-10.7352
▁held	-10.7352
▁render	-10.7352
▁Linda	-10.7354
▁abandoned	-10.7354
▁MTV	-10.7354
▁Johnny	-10.7355
▁prime	-10.7355
▁tall	-10.7355
▁reward	-10.7356
▁Helen	-10.7356
▁entry	-10.7356
▁Murray	-10.7356
▁buff	-10.7357
▁meaningless	-10.7357
▁Carlos	-10.7358
▁executed	-10.7358
▁feminist	-10.7359
▁Heart	-10.736
▁distract	-10.7361
▁WW	-10.7361
▁Lloyd	-10.7361
▁performers	-10.7361
▁Fish	-10.7362
▁exploitation	-10.7364
▁pun	-10.7364
▁humanity	-10.7364
▁Jon	-10.7365
▁humorous	-10.7366
▁Oz	-10.7366
▁superb	-10.7366
▁Laura	-10.737
▁media	-10.737
▁wave	-10.7371
▁shape	-10.7371
lar	-10.7375
▁Probably	-10.7375
▁programme	-10.7376
induc	-10.7376
▁ignored	-10.7378
▁comp	-10.7378
▁movement	-10.738
▁RE	-10.738
▁Eric	-10.7381
▁Asian	-10.7384
▁Sim	-10.7384
▁shake	-10.7389
▁satisfying	-10.7392
▁End	-10.7392
▁Strange	-10.7393
▁Gore	-10.7401
▁lying	-10.7406
▁burned	-10.7407
▁string	-10.7414
▁received	-10.7416
▁dam	-10.7417
hey	-10.7427
Ma	-10.743
nia	-10.7436
▁castle	-10.7439
ya	-10.7443
cut	-10.7443
▁Oliv	-10.7448
▁nail	-10.7449
▁award	-10.745
▁Neil	-10.7452
▁Pat	-10.7453
▁twin	-10.7453
▁Roy	-10.746
▁ST	-10.7462
▁tortured	-10.7465
▁Arm	-10.7469
▁previews	-10.7473
ki	-10.7476
▁sales	-10.7479
▁fatal	-10.7498
▁inane	-10.7501
Only	-10.7513
▁Dur	-10.7513
▁hole	-10.7516
▁nut	-10.7533
▁ME	-10.7534
Donald	-10.7539
▁Scene	-10.7539
▁insulting	-10.754
▁States	-10.7541
▁spoilers	-10.7545
ern	-10.7554
▁viewed	-10.7554
▁factor	-10.7561
THE	-10.7573
▁included	-10.7585
▁cliches	-10.7586
▁Er	-10.759
▁bath	-10.7599
gue	-10.761
▁prom	-10.7638
▁cant	-10.7663
▁realise	-10.7666
rig	-10.7667
UR	-10.7669
can	-10.7671
▁mini	-10.7678
▁handed	-10.7688
mber	-10.7697
▁legs	-10.7701
nny	-10.7702
HO	-10.7704
▁wa	-10.772
▁Boys	-10.7725
▁theaters	-10.7726
yard	-10.7726
▁killers	-10.7733
▁mum	-10.7757
nel	-10.7759
ummy	-10.7767
▁idiots	-10.7771
▁kicks	-10.7773
▁gri	-10.7773
▁critic	-10.7796
▁Cu	-10.7796
▁unit	-10.7799
▁MAN	-10.7812
▁Stu	-10.7819
90	-10.7829
▁ear	-10.7849
Di	-10.7864
▁depend	-10.7867
▁scares	-10.7876
3)	-10.79
▁Apart	-10.7901
itle	-10.7907
▁flashback	-10.7909
▁guard	-10.7909
▁puppet	-10.791
▁teens	-10.7912
▁weapon	-10.7912
▁term	-10.7916
CH	-10.792
▁boot	-10.7924
ments	-10.7959
spect	-10.7967
ski	-10.798
rol	-10.7994
ters	-10.8001
▁terror	-10.8027
▁accidental	-10.8031
zo	-10.8035
ov	-10.8042
lick	-10.8045
▁trans	-10.8049
▁cars	-10.8073
cil	-10.8078
▁rep	-10.8083
story	-10.8085
▁REAL	-10.8101
hose	-10.8102
maker	-10.8103
▁Ice	-10.8119
from	-10.8124
▁Str	-10.8126
▁corn	-10.8126
town	-10.8127
Even	-10.8128
bound	-10.813
ability	-10.8134
room	-10.8134
rch	-10.8134
▁witness	-10.814
ility	-10.8141
▁thank	-10.8142
▁produce	-10.8144
▁wo	-10.8146
▁chat	-10.8147
▁peace	-10.8147
▁rooms	-10.8147
▁slight	-10.8151
▁ignore	-10.8151
▁confuse	-10.8152
▁surprises	-10.8152
ups	-10.8158
▁Bur	-10.8159
▁Africa	-10.8163
hold	-10.817
▁Master	-10.8171
nder	-10.8171
▁adapt	-10.8175
magine	-10.8175
▁nation	-10.8177
acted	-10.818
▁radio	-10.8182
@	-10.8182
▁Dragon	-10.8182
▁Shakespeare	-10.8182
▁appalling	-10.8182
▁biblical	-10.8182
▁neighbor	-10.8182
▁scratch	-10.8182
▁theatrical	-10.8182
*1/2	-10.8182
climactic	-10.8182
corporate	-10.8182
▁Cahill	-10.8182
▁Carradine	-10.8182
▁Except	-10.8182
▁Flynn	-10.8182
▁Gibson	-10.8182
▁HUGE	-10.8182
▁Mexico	-10.8182
▁Shadow	-10.8182
▁bottle	-10.8182
▁cluck	-10.8182
▁curiosity	-10.8182
▁marriage	-10.8182
▁motorcycle	-10.8182
▁narration	-10.8182
▁ninja	-10.8182
▁sleaze	-10.8182
▁snakes	-10.8182
▁spark	-10.8182
▁throat	-10.8182
▁ticket	-10.8182
▁tragic	-10.8182
▁unwatchable	-10.8182
▁vomit	-10.8182
▁Austen	-10.8182
▁Ocean	-10.8182
▁Sonja	-10.8182
▁Troma	-10.8182
▁dreck	-10.8182
▁frightening	-10.8182
▁text	-10.8182
species	-10.8182
▁Jason	-10.8182
▁border	-10.8182
▁drill	-10.8182
▁BBC	-10.8182
▁Segal	-10.8182
▁distance	-10.8182
▁Plus	-10.8182
▁trait	-10.8182
▁Lambert	-10.8182
▁heavily	-10.8182
▁summer	-10.8182
▁Jesus	-10.8182
▁Christophe	-10.8182
▁Something	-10.8182
▁quiet	-10.8182
▁sharp	-10.8182
▁Horrible	-10.8182
▁practical	-10.8182
▁abrupt	-10.8182
▁NEVER	-10.8182
▁slaughter	-10.8182
▁cardboard	-10.8182
▁contrast	-10.8183
▁private	-10.8183
▁Think	-10.8183
▁comedies	-10.8183
▁Philip	-10.8183
▁Tyler	-10.8183
▁Ireland	-10.8183
▁blue	-10.8183
▁chain	-10.8183
▁Jeff	-10.8183
▁robot	-10.8183
▁locate	-10.8183
▁department	-10.8183
▁invisible	-10.8183
▁marry	-10.8183
▁wrapped	-10.8183
▁1940	-10.8183
▁benefit	-10.8183
whilst	-10.8183
▁freedom	-10.8184
▁unoriginal	-10.8184
▁Walker	-10.8184
▁moron	-10.8184
▁closing	-10.8185
▁Lady	-10.8185
▁worthwhile	-10.8186
▁creation	-10.8187
▁editor	-10.8187
▁Doug	-10.8187
▁Eddie	-10.8188
▁swear	-10.8188
▁flight	-10.8189
▁lab	-10.8189
▁BAD	-10.819
▁Chase	-10.819
▁Matthew	-10.819
▁significant	-10.819
▁explode	-10.819
▁friendship	-10.819
▁float	-10.819
▁invite	-10.8191
▁reject	-10.8191
▁muddled	-10.8192
▁mor	-10.8192
rmored	-10.8192
▁blend	-10.8192
jo	-10.8193
▁Full	-10.8193
▁bang	-10.8193
▁Lane	-10.8193
ani	-10.8193
▁depiction	-10.8195
▁Story	-10.8195
▁spoke	-10.8196
▁Camp	-10.8196
▁Chuck	-10.8196
▁wannabe	-10.8198
efore	-10.8198
▁Alan	-10.8199
▁Last	-10.82
▁Sub	-10.8201
▁HO	-10.8201
▁India	-10.8202
Le	-10.8202
▁Such	-10.8204
▁Over	-10.8206
▁Call	-10.8208
▁MY	-10.8209
▁achieved	-10.8211
▁ancient	-10.8211
▁Basically	-10.8211
▁erotic	-10.8211
▁shouting	-10.8212
▁signs	-10.8213
▁partner	-10.8213
▁Obviously	-10.8216
▁wire	-10.8217
▁blonde	-10.8222
▁Evil	-10.8222
▁Allen	-10.8224
▁Boring	-10.8226
▁suffered	-10.8226
▁hence	-10.8233
▁exposed	-10.8234
▁reel	-10.8235
▁wi	-10.8236
▁Force	-10.8236
▁Cole	-10.8237
▁nose	-10.8239
▁spoiled	-10.8241
inter	-10.8242
▁fla	-10.8243
▁connected	-10.8245
▁chill	-10.8247
▁mentally	-10.8248
coming	-10.825
▁Fan	-10.8251
▁resemble	-10.8255
▁accepted	-10.8257
▁absen	-10.8258
▁gain	-10.826
▁bra	-10.8263
▁ONE	-10.8268
▁delivery	-10.8269
▁deserved	-10.827
▁fooled	-10.8273
▁Need	-10.8274
emme	-10.8275
▁stranger	-10.8279
▁examples	-10.8282
▁***	-10.8303
▁shocked	-10.8311
▁stealing	-10.8312
▁ju	-10.8315
▁Art	-10.8324
▁raped	-10.8328
▁listening	-10.8329
▁hanging	-10.834
▁creators	-10.8342
▁gags	-10.8344
stan	-10.8352
▁continual	-10.8364
▁padd	-10.8373
▁$	-10.8381
▁cuts	-10.8383
▁growing	-10.8389
▁Nazis	-10.8391
▁rat	-10.8394
▁sha	-10.8399
▁nine	-10.8404
▁mal	-10.8404
▁passed	-10.8417
▁Character	-10.8418
"?	-10.8437
▁ears	-10.8439
▁stunts	-10.8441
▁enthusiast	-10.8457
▁0	-10.8457
Man	-10.8458
▁cap	-10.846
▁guards	-10.8462
still	-10.848
hould	-10.8482
▁$1	-10.8486
BO	-10.8494
tain	-10.8498
▁inspiration	-10.8505
▁press	-10.8515
▁maker	-10.8548
▁arrives	-10.8548
▁Ford	-10.8565
▁IS	-10.8599
▁judg	-10.8606
▁arms	-10.8617
▁ring	-10.8618
▁hir	-10.8624
▁San	-10.8644
▁Hoo	-10.8645
▁disco	-10.8645
key	-10.8653
▁tro	-10.8655
▁titles	-10.8661
esh	-10.8662
▁claims	-10.8671
atory	-10.8673
ene	-10.8673
▁murders	-10.8681
▁Ap	-10.87
▁Dad	-10.87
ates	-10.8701
▁vs	-10.8705
▁suffer	-10.8706
ching	-10.8739
▁Bri	-10.8747
▁14	-10.877
▁jobs	-10.8778
try	-10.8781
knowledge	-10.8786
OP	-10.879
▁Rob	-10.879
▁continue	-10.8802
▁Phillip	-10.8812
▁cliche	-10.8816
▁Yu	-10.8816
▁stunt	-10.8819
▁tracks	-10.8823
▁disc	-10.8843
▁Base	-10.8855
▁birds	-10.8875
▁25	-10.8875
▁helping	-10.8877
▁Cop	-10.8878
ILL	-10.8879
ccording	-10.8881
▁belong	-10.8884
▁tip	-10.8916
▁tea	-10.8941
▁assassin	-10.8956
▁severe	-10.8961
▁fulfill	-10.8971
▁Val	-10.8975
▁annoy	-10.8985
▁wash	-10.8999
▁mud	-10.9001
▁types	-10.9007
▁originally	-10.9019
▁cared	-10.9022
appy	-10.9028
▁Ge	-10.9029
war	-10.9029
field	-10.9032
maybe	-10.9033
video	-10.9033
point	-10.9033
something	-10.9033
girl	-10.9034
Watch	-10.9035
cap	-10.9036
why	-10.9037
11	-10.9039
book	-10.9039
ending	-10.904
abo	-10.9042
▁com	-10.9052
ES	-10.9052
▁doom	-10.9053
▁Final	-10.9055
formed	-10.9056
▁unfortunate	-10.9056
▁achieve	-10.9056
▁Pro	-10.9056
▁easi	-10.9058
▁tune	-10.9059
▁relat	-10.9061
▁occasional	-10.9062
aught	-10.9068
ened	-10.907
▁wind	-10.9072
▁threat	-10.9077
faced	-10.9081
▁origin	-10.9082
▁stone	-10.9082
▁efforts	-10.9085
▁voices	-10.9086
▁unbelievab	-10.9086
▁arch	-10.9086
▁confront	-10.9089
▁Life	-10.909
▁confirm	-10.9091
▁disgrace	-10.9091
immigrant	-10.9091
▁Apparently	-10.9091
▁Barbara	-10.9091
▁California	-10.9091
▁Carpenter	-10.9091
▁Crawford	-10.9091
▁Incident	-10.9091
▁Jamie	-10.9091
▁Killjoy	-10.9091
▁Massacre	-10.9091
▁Stephen	-10.9091
▁Video	-10.9091
▁bargain	-10.9091
▁chapter	-10.9091
▁circumstances	-10.9091
▁conceived	-10.9091
▁convoluted	-10.9091
▁derivative	-10.9091
▁guarantee	-10.9091
▁increasing	-10.9091
▁necessarily	-10.9091
▁politics	-10.9091
▁principle	-10.9091
▁reflect	-10.9091
▁rifle	-10.9091
▁technique	-10.9091
▁tunnel	-10.9091
▁Capote	-10.9091
▁Dillon	-10.9091
▁Kubrick	-10.9091
▁Nelson	-10.9091
▁accus	-10.9091
▁banned	-10.9091
▁chassidi	-10.9091
▁eager	-10.9091
▁prior	-10.9091
▁recycl	-10.9091
▁sheriff	-10.9091
▁Harvest	-10.9091
▁Monster	-10.9091
▁Year	-10.9091
▁asteroid	-10.9091
▁interior	-10.9091
Brazil	-10.9091
▁Carrie	-10.9091
▁announce	-10.9091
▁false	-10.9091
▁homosexual	-10.9091
▁burst	-10.9091
▁broadcast	-10.9091
▁gift	-10.9091
▁Salman	-10.9091
▁controversial	-10.9091
Graduat	-10.9091
▁descent	-10.9091
▁Sometimes	-10.9091
▁inserted	-10.9091
▁basis	-10.9091
▁intense	-10.9091
▁link	-10.9091
▁category	-10.9092
▁disguise	-10.9092
▁Channel	-10.9092
▁transfer	-10.9092
▁SciFi	-10.9092
▁rebel	-10.9092
▁exchange	-10.9092
▁blink	-10.9092
▁Beast	-10.9092
▁outrageous	-10.9092
▁Israel	-10.9092
▁food	-10.9092
▁kidnapper	-10.9092
▁Talk	-10.9092
▁interaction	-10.9092
▁nauseating	-10.9093
▁incest	-10.9093
▁foul	-10.9093
▁inject	-10.9093
▁trade	-10.9093
▁Edgar	-10.9093
▁rush	-10.9094
▁Cuba	-10.9094
▁coast	-10.9094
▁laser	-10.9094
▁lackluster	-10.9094
▁label	-10.9095
▁Princess	-10.9095
▁proud	-10.9095
▁vanish	-10.9095
▁woods	-10.9095
▁Father	-10.9095
lbei	-10.9095
▁combine	-10.9096
▁nerd	-10.9096
▁slick	-10.9096
▁3000	-10.9096
▁overlook	-10.9096
▁boredom	-10.9096
▁cancel	-10.9096
storm	-10.9096
▁Knight	-10.9097
▁investigation	-10.9098
▁ego	-10.9098
▁Beyond	-10.9098
▁elsewhere	-10.9098
▁ironic	-10.9098
▁wig	-10.9098
▁punk	-10.9099
▁attend	-10.9099
▁everywhere	-10.9099
▁Clark	-10.91
▁Saw	-10.9101
▁Cool	-10.9101
▁geek	-10.9101
▁Sheba	-10.9102
▁Miller	-10.9104
▁moon	-10.9104
▁rack	-10.9105
▁patient	-10.9106
▁Plot	-10.9106
▁Almost	-10.9106
▁debut	-10.9107
▁disturbed	-10.9107
▁Home	-10.9108
omi	-10.9109
▁useful	-10.911
▁shelf	-10.911
▁outstanding	-10.9111
▁shirt	-10.9112
▁Marion	-10.9112
fun	-10.9112
▁Baby	-10.9113
▁mild	-10.9113
gli	-10.9114
▁Lots	-10.9118
▁established	-10.912
▁quit	-10.912
▁Lucy	-10.9122
▁SPOILER	-10.9123
▁latest	-10.9123
▁Plan	-10.9123
trust	-10.9124
▁repeated	-10.9125
▁Young	-10.9128
▁removed	-10.9129
▁Ark	-10.9132
▁Stooges	-10.9132
▁sand	-10.9133
▁Back	-10.9134
▁Louis	-10.9134
▁blown	-10.9134
▁stumble	-10.9135
▁icon	-10.9135
▁corner	-10.9135
▁bus	-10.9137
NCE	-10.9139
▁apartment	-10.914
ident	-10.914
▁witnessed	-10.9143
▁threatening	-10.9143
▁noise	-10.9143
▁entertained	-10.9147
▁wrestler	-10.915
▁Land	-10.9151
▁vari	-10.9156
▁deaths	-10.9156
▁Spacey	-10.9157
RO	-10.916
▁yard	-10.9161
pical	-10.9162
▁flawed	-10.9171
▁spy	-10.9174
▁chopp	-10.9175
▁West	-10.9175
▁naturally	-10.9176
▁consum	-10.9177
▁loosely	-10.918
▁Rose	-10.9181
▁lone	-10.9181
comprehensible	-10.9182
ised	-10.9183
▁sucker	-10.9183
▁endure	-10.9185
▁Top	-10.9185
▁drawing	-10.9186
▁brat	-10.9189
▁primar	-10.9199
▁candy	-10.9201
cer	-10.9204
▁row	-10.9206
▁Gues	-10.9209
0,000	-10.9209
▁Sch	-10.921
▁errors	-10.9213
▁warn	-10.9216
RK	-10.9241
yr	-10.9245
▁tin	-10.9246
▁boil	-10.926
▁despise	-10.9273
▁importantly	-10.9285
ellar	-10.929
▁clips	-10.9294
▁sock	-10.9309
▁ador	-10.9331
▁Fl	-10.9332
▁min	-10.9341
actors	-10.9346
▁logical	-10.9349
▁winds	-10.9376
▁belongs	-10.9376
▁helps	-10.9377
▁opened	-10.938
OM	-10.9386
going	-10.9387
▁Sta	-10.9394
▁Ten	-10.9397
)...	-10.94
▁ape	-10.9409
▁Ju	-10.9425
▁myth	-10.9427
▁bust	-10.9432
▁LA	-10.9445
▁conversations	-10.9487
▁colors	-10.9488
▁killings	-10.9493
▁Twi	-10.9511
▁196	-10.9512
▁expressions	-10.9516
▁Gus	-10.9526
bbing	-10.9528
cid	-10.9543
resumably	-10.9572
▁Lil	-10.9576
▁provid	-10.9583
▁doll	-10.9585
▁gate	-10.9592
ith	-10.9613
wn	-10.9623
▁rocket	-10.9625
▁specific	-10.963
▁portrays	-10.9634
ique	-10.9644
anger	-10.9647
▁exceptional	-10.968
▁adding	-10.9686
▁Mor	-10.9686
Rating	-10.9701
▁Die	-10.9704
ago	-10.9706
rough	-10.9706
▁fed	-10.9709
ature	-10.9721
▁returns	-10.9744
▁caring	-10.9755
bby	-10.9768
rent	-10.9793
▁topic	-10.9806
ella	-10.9814
▁dollar	-10.9822
▁Christ	-10.9827
▁va	-10.9843
▁doctors	-10.9885
▁Days	-10.9886
▁fare	-10.989
▁slip	-10.9891
▁sides	-10.9898
▁Bel	-10.9909
30	-10.9913
brow	-10.9939
elli	-10.994
such	-10.9943
▁millions	-10.9944
▁seduce	-10.9945
▁promo	-10.9959
llo	-10.9961
▁woo	-10.9962
round	-10.9972
▁grab	-10.998
▁chas	-10.9994
▁Julie	-11.0009
US	-11.0014
▁study	-11.0026
dress	-11.003
Alien	-11.0031
claim	-11.0032
Dark	-11.0032
Michael	-11.0033
dramatic	-11.0033
Most	-11.0033
free	-11.0033
motion	-11.0034
demon	-11.0035
class	-11.0036
awful	-11.0037
through	-11.0038
▁investigat	-11.004
▁rule	-11.0048
▁Ga	-11.0049
put	-11.005
pack	-11.0051
ified	-11.0053
▁unc	-11.0054
produc	-11.0054
▁surf	-11.0055
Fro	-11.0055
dding	-11.0057
▁trail	-11.0057
www	-11.0061
unless	-11.0063
▁misse	-11.007
▁invest	-11.0075
eason	-11.0076
▁gym	-11.0078
▁dig	-11.008
▁progress	-11.0081
▁Ever	-11.0081
▁collect	-11.0086
▁psychologi	-11.0086
▁confess	-11.0087
▁Super	-11.0088
▁famili	-11.0088
assic	-11.0089
peaking	-11.009
▁South	-11.0091
▁multi	-11.0091
–	-11.0091
▁1/10	-11.0091
▁Absolute	-11.0091
▁Adonijah	-11.0091
▁Brynner	-11.0091
▁Clooney	-11.0091
▁Holocaust	-11.0091
▁Keaton	-11.0091
▁Nightbeast	-11.0091
▁Pistols	-11.0091
▁Raimi	-11.0091
▁Remember	-11.0091
▁Sebastian	-11.0091
▁Stewart	-11.0091
▁WATCH	-11.0091
▁accompanie	-11.0091
▁blatant	-11.0091
▁casual	-11.0091
▁combination	-11.0091
▁complicated	-11.0091
▁context	-11.0091
▁convenient	-11.0091
▁courage	-11.0091
▁festival	-11.0091
▁gimmick	-11.0091
▁glimpse	-11.0091
▁incompetent	-11.0091
▁jarring	-11.0091
▁knife	-11.0091
▁landscape	-11.0091
▁magazine	-11.0091
▁memories	-11.0091
▁minimum	-11.0091
▁nonsensical	-11.0091
▁obscure	-11.0091
▁pleasant	-11.0091
▁profanity	-11.0091
▁psychopath	-11.0091
▁purchase	-11.0091
▁railroad	-11.0091
▁reputation	-11.0091
▁respond	-11.0091
▁schlock	-11.0091
▁shrink	-11.0091
▁simplistic	-11.0091
▁striking	-11.0091
▁suspicious	-11.0091
▁undoubt	-11.0091
▁unexpected	-11.0091
▁worried	-11.0091
PLEASE	-11.0091
▁HAPP	-11.0091
▁descend	-11.0091
▁elderly	-11.0091
▁elephant	-11.0091
▁method	-11.0091
▁montage	-11.0091
▁segment	-11.0091
▁tacky	-11.0091
▁unfold	-11.0091
▁AIDS	-11.0091
▁Hammer	-11.0091
▁welcome	-11.0091
▁zoom	-11.0091
▁Sleep	-11.0091
▁Vegas	-11.0091
▁nowadays	-11.0091
▁stranded	-11.0091
▁warrior	-11.0091
▁Derek	-11.0091
▁crawl	-11.0091
▁ordinary	-11.0091
▁pause	-11.0091
▁WAS	-11.0091
▁baffl	-11.0091
▁inhabit	-11.0091
▁launch	-11.0091
▁churn	-11.0091
▁tactic	-11.0091
▁DID	-11.0091
▁abomination	-11.0091
▁offense	-11.0091
▁Altman	-11.0091
▁Clay	-11.0091
▁Play	-11.0091
▁evident	-11.0091
▁Kelly	-11.0091
▁disconnect	-11.0091
▁bumbl	-11.0091
▁devote	-11.0091
▁Stock	-11.0091
ELL	-11.0091
▁Quaid	-11.0091
▁kiss	-11.0091
▁mugg	-11.0091
▁security	-11.0091
▁Rome	-11.0091
▁Bridge	-11.0091
▁contemporary	-11.0092
▁profit	-11.0092
▁Terrible	-11.0092
▁dubbing	-11.0092
▁transport	-11.0092
▁Thorpe	-11.0092
▁thief	-11.0092
▁kidnapped	-11.0092
▁symbolism	-11.0092
▁Sister	-11.0092
▁cheer	-11.0092
▁sidekick	-11.0092
▁Antoni	-11.0092
▁blank	-11.0092
▁identity	-11.0092
▁cannibal	-11.0092
▁dragged	-11.0093
▁Irish	-11.0093
▁proceedings	-11.0093
▁Pitt	-11.0093
▁measure	-11.0093
▁inventive	-11.0093
▁competent	-11.0093
▁Marlow	-11.0093
▁punish	-11.0093
▁buddy	-11.0093
▁trite	-11.0093
▁combat	-11.0093
▁loving	-11.0093
▁route	-11.0093
▁China	-11.0093
▁wrap	-11.0093
▁Almighty	-11.0093
▁pitch	-11.0093
▁skeleton	-11.0093
▁subtlety	-11.0094
▁Bobby	-11.0094
▁Uwe	-11.0094
ssuming	-11.0094
▁spill	-11.0094
▁unknown	-11.0094
▁Perch	-11.0094
▁universe	-11.0095
▁Biblical	-11.0095
▁obnoxious	-11.0095
▁psychiatri	-11.0095
▁Could	-11.0095
▁Santa	-11.0095
▁captiv	-11.0095
▁hostage	-11.0095
ssembl	-11.0095
▁states	-11.0095
▁achievement	-11.0095
▁alter	-11.0096
▁neat	-11.0096
▁thug	-11.0096
▁Duke	-11.0096
▁Morgan	-11.0096
▁moronic	-11.0096
▁antics	-11.0097
stein	-11.0097
▁99	-11.0097
▁16	-11.0098
▁laid	-11.0098
▁pants	-11.0098
▁cookie	-11.0098
▁coffe	-11.0098
▁handsome	-11.0098
▁betrayal	-11.0098
▁bump	-11.0098
▁possibility	-11.0099
▁Lena	-11.0099
▁pool	-11.0099
▁Snow	-11.0099
▁transform	-11.01
▁17	-11.01
▁Crow	-11.01
▁Colin	-11.01
▁starred	-11.0101
▁Down	-11.0101
▁fancy	-11.0101
▁define	-11.0101
▁Mencia	-11.0101
▁Mason	-11.0102
▁national	-11.0102
▁tolerate	-11.0102
▁Carol	-11.0103
▁wedding	-11.0103
▁raw	-11.0103
▁enjoyment	-11.0106
ENT	-11.0106
gnor	-11.0107
▁UP	-11.0107
▁Death	-11.0107
▁Wait	-11.0107
?!?!	-11.0108
▁Swan	-11.0109
▁fictional	-11.0109
glass	-11.011
▁Roll	-11.0113
▁Ross	-11.0113
▁worn	-11.0114
▁Ghost	-11.0114
itch	-11.0114
▁Pick	-11.0114
▁instantly	-11.0116
▁Frost	-11.0116
▁Seven	-11.0118
▁21	-11.012
▁craft	-11.012
▁photographer	-11.0121
▁coke	-11.0121
▁shaking	-11.0122
▁qua	-11.0123
▁Meanwhile	-11.0127
▁/>1.	-11.0127
now	-11.0129
▁faithful	-11.0129
▁expose	-11.0136
▁bitter	-11.0137
▁quirky	-11.0138
▁commander	-11.014
Truly	-11.0142
into	-11.0144
▁dire	-11.0148
anche	-11.0163
▁Billy	-11.0164
▁spr	-11.0169
▁continued	-11.0169
signed	-11.0174
sexual	-11.018
▁slap	-11.018
▁oil	-11.0184
ooney	-11.0185
▁kicked	-11.0185
▁Dove	-11.0187
▁emerg	-11.0188
▁survived	-11.0193
▁scripts	-11.0204
mons	-11.0205
▁crashing	-11.021
REALLY	-11.0212
▁related	-11.0218
▁escapes	-11.022
▁dated	-11.0228
▁visually	-11.0232
▁sexually	-11.0237
▁pointed	-11.0238
▁sal	-11.0241
▁bones	-11.0245
▁Your	-11.0253
▁fate	-11.0262
FI	-11.0265
▁props	-11.0267
▁rant	-11.0277
▁sports	-11.0287
▁OR	-11.0294
ille	-11.0294
▁carrying	-11.0298
itz	-11.0316
(..	-11.0324
▁appealing	-11.0333
▁listed	-11.0334
nal	-11.0344
▁motives	-11.0347
▁explosions	-11.0347
vid	-11.0353
tiny	-11.0359
▁dealers	-11.0366
By	-11.037
actor	-11.0375
▁rules	-11.0375
▁kinda	-11.0383
▁Cas	-11.0383
nnie	-11.0392
bag	-11.0403
▁Phillips	-11.0409
▁Sel	-11.0418
";	-11.0419
asper	-11.0419
dle	-11.0423
▁resembles	-11.0429
▁explaining	-11.0438
▁Seem	-11.0443
▁Ven	-11.0447
▁commenting	-11.0449
av	-11.045
▁tears	-11.0469
▁thrills	-11.0474
▁Pam	-11.0489
▁Hills	-11.0501
▁crimes	-11.0513
▁brave	-11.0519
▁beating	-11.0523
▁(?)	-11.0529
▁projects	-11.0544
ESS	-11.0557
▁Clo	-11.0559
tec	-11.056
▁Han	-11.0561
▁faced	-11.0567
cutter	-11.0594
▁levels	-11.0606
▁powers	-11.0607
▁Col	-11.0612
▁Christin	-11.0621
▁subplots	-11.0626
▁protagonists	-11.063
▁Var	-11.063
▁cra	-11.0663
▁forty	-11.0676
▁Ca	-11.0687
▁fac	-11.0697
▁Wor	-11.0712
▁hal	-11.0712
▁fur	-11.0742
▁dud	-11.0748
▁SO	-11.075
LA	-11.0758
▁5-	-11.0759
▁hol	-11.0763
▁GI	-11.0768
evel	-11.0799
▁aid	-11.0805
8)	-11.0811
▁gangsters	-11.0816
worker	-11.0817
▁Chic	-11.0818
▁194	-11.0831
cation	-11.0857
unning	-11.086
Step	-11.0871
▁namely	-11.0873
▁continu	-11.0882
GE	-11.0886
▁stereotype	-11.0898
****	-11.0902
▁walls	-11.0903
▁lovers	-11.0903
▁ninet	-11.0911
sci	-11.0918
▁prostitute	-11.092
▁Los	-11.0922
▁explosion	-11.0924
▁motive	-11.0924
▁Ring	-11.0927
▁month	-11.0932
▁State	-11.0933
▁parent	-11.0942
▁Nazi	-11.0944
▁choices	-11.0945
sex	-11.095
▁skill	-11.0952
bul	-11.0963
▁Mill	-11.0966
▁spoiler	-11.0968
▁Mars	-11.0971
▁shi	-11.0973
▁swa	-11.0974
▁Ce	-11.0987
▁dealer	-11.0994
▁UN	-11.1004
▁Fi	-11.1029
▁wr	-11.1039
only	-11.1039
▁mate	-11.1041
hearted	-11.1049
ggy	-11.1061
▁Pi	-11.1068
ANG	-11.1088
ization	-11.1091
▁disappoint	-11.1095
▁200	-11.1095
▁edit	-11.1096
▁destin	-11.1099
standing	-11.1117
evil	-11.1118
piece	-11.1121
▁Anne	-11.1122
▁escap	-11.1126
Chris	-11.1139
▁satisfy	-11.1139
written	-11.114
Finally	-11.1141
witch	-11.1142
plain	-11.1143
phone	-11.1144
Robert	-11.1144
worst	-11.1145
minute	-11.1146
Look	-11.1146
scary	-11.1147
▁invent	-11.115
Matt	-11.1151
Kill	-11.1152
porn	-11.1154
▁threaten	-11.1156
think	-11.1157
▁Grant	-11.1158
▁haunt	-11.1159
series	-11.1161
▁initial	-11.1165
▁definite	-11.1167
▁convention	-11.1169
▁generat	-11.1176
▁mistakes	-11.1176
▁guilt	-11.1179
▁robber	-11.1179
ril	-11.1181
▁suspens	-11.1182
hero	-11.1182
▁Whe	-11.119
▁occasion	-11.1192
▁pursu	-11.1198
▁Brad	-11.1201
▁trauma	-11.1201
▁oppos	-11.1202
THING	-11.1202
▁Leonard	-11.1202
▁SEAL	-11.1202
▁alternative	-11.1202
▁artificial	-11.1202
▁cliff	-11.1202
▁conspirac	-11.1202
▁enormous	-11.1202
▁explicit	-11.1202
▁infamous	-11.1202
▁insipid	-11.1202
▁principal	-11.1202
▁suspend	-11.1202
Factotum	-11.1202
Interesting	-11.1202
]	-11.1202
explosive	-11.1202
werewolf	-11.1202
▁Arabia	-11.1202
▁Bergman	-11.1202
▁Bronson	-11.1202
▁Bukowski	-11.1202
▁COBRA	-11.1202
▁Canada	-11.1202
▁Central	-11.1202
▁Dahmer	-11.1202
▁Especially	-11.1202
▁Eventually	-11.1202
▁Fulci	-11.1202
▁Garcia	-11.1202
▁Greek	-11.1202
▁Greg	-11.1202
▁Hoffman	-11.1202
▁Internet	-11.1202
▁Kidman	-11.1202
▁Monogram	-11.1202
▁Picture	-11.1202
▁Sarkar	-11.1202
▁Zombie	-11.1202
▁alternate	-11.1202
▁caricature	-11.1202
▁clunky	-11.1202
▁distinguish	-11.1202
▁distributor	-11.1202
▁encourage	-11.1202
▁evoke	-11.1202
▁examine	-11.1202
▁frozen	-11.1202
▁guitar	-11.1202
▁holiday	-11.1202
▁homage	-11.1202
▁illogical	-11.1202
▁importance	-11.1202
▁interpretation	-11.1202
▁intrigue	-11.1202
▁journey	-11.1202
▁mainstream	-11.1202
▁misguided	-11.1202
▁mundane	-11.1202
▁plausible	-11.1202
▁premiere	-11.1202
▁prince	-11.1202
▁reminiscen	-11.1202
▁resurrect	-11.1202
▁scheme	-11.1202
▁shodd	-11.1202
▁skull	-11.1202
▁stilted	-11.1202
▁unappealing	-11.1202
▁veteran	-11.1202
▁wardrobe	-11.1202
▁CNN	-11.1202
▁Egypt	-11.1202
▁Freeman	-11.1202
▁Gothic	-11.1202
▁Kirk	-11.1202
▁Russell	-11.1202
▁Virgi	-11.1202
▁awake	-11.1202
▁coffin	-11.1202
▁credible	-11.1202
▁cultural	-11.1202
▁firefighter	-11.1202
▁french	-11.1202
▁garden	-11.1202
▁puke	-11.1202
▁smell	-11.1202
▁swallow	-11.1202
▁trivia	-11.1202
▁Firth	-11.1202
▁Jake	-11.1202
▁Owen	-11.1202
▁danton	-11.1202
▁drown	-11.1202
▁DAYS	-11.1202
▁Mateo	-11.1202
▁resort	-11.1202
▁Price	-11.1202
▁minimal	-11.1202
▁Khan	-11.1202
▁Martha	-11.1202
▁chew	-11.1202
▁contestants	-11.1202
▁strict	-11.1202
-13	-11.1202
▁internet	-11.1202
▁Batman	-11.1202
▁riot	-11.1202
▁audio	-11.1202
▁sickening	-11.1202
▁Carrey	-11.1202
Number	-11.1202
▁Foot	-11.1202
▁Believe	-11.1202
Canadian	-11.1202
▁spell	-11.1203
spiring	-11.1203
▁Chinaski	-11.1203
▁structure	-11.1203
▁bathroom	-11.1203
▁Garfield	-11.1203
▁Water	-11.1203
▁worry	-11.1203
▁Old	-11.1203
ACK	-11.1203
▁showcase	-11.1203
▁banal	-11.1203
Silence	-11.1203
▁WORS	-11.1203
Third	-11.1203
▁Grey	-11.1203
▁1990	-11.1203
Major	-11.1203
▁Redford	-11.1203
▁Zeta	-11.1203
▁Jerk	-11.1203
▁resist	-11.1204
▁Hackman	-11.1204
▁unrelated	-11.1204
▁inexplicabl	-11.1204
▁$4	-11.1204
▁hungry	-11.1204
▁urge	-11.1204
▁trend	-11.1204
▁parade	-11.1204
▁spread	-11.1204
▁Caine	-11.1204
▁thread	-11.1204
▁hood	-11.1204
▁criticism	-11.1204
▁Harold	-11.1204
▁eighties	-11.1204
▁swim	-11.1204
▁Micke	-11.1204
▁argument	-11.1204
▁misery	-11.1205
▁Romero	-11.1205
▁underwater	-11.1205
▁Kind	-11.1205
▁Carey	-11.1205
▁STAR	-11.1205
▁bride	-11.1205
▁nonexistent	-11.1205
▁basement	-11.1205
▁Know	-11.1205
▁address	-11.1206
▁McCo	-11.1206
▁Town	-11.1206
▁Leach	-11.1206
▁slightest	-11.1206
▁objective	-11.1206
▁mansion	-11.1206
▁Wilkinson	-11.1206
▁committed	-11.1207
▁Beach	-11.1207
▁Scream	-11.1207
▁gem	-11.1208
▁Jill	-11.1208
▁vast	-11.1208
▁liberal	-11.1208
▁frustrated	-11.1208
▁possession	-11.1208
▁jaw	-11.1209
▁ultra	-11.1209
ville	-11.1209
▁hill	-11.1209
▁Zone	-11.1209
▁suspenseful	-11.121
▁carefully	-11.121
▁lake	-11.121
▁defend	-11.121
▁tame	-11.1211
▁FOR	-11.1211
kill	-11.1211
▁rubb	-11.1212
▁await	-11.1212
▁publicity	-11.1212
▁unlikeable	-11.1212
▁bible	-11.1213
▁preacher	-11.1213
▁Franco	-11.1213
▁Lawrence	-11.1213
▁drunken	-11.1213
▁tolerable	-11.1214
▁block	-11.1214
ARD	-11.1214
▁Hour	-11.1215
▁arrested	-11.1216
▁shameless	-11.1217
▁EVER	-11.1219
▁goof	-11.1219
▁uneven	-11.1219
▁copies	-11.122
▁scarecrow	-11.122
▁inspired	-11.122
▁split	-11.122
▁Iraqi	-11.1221
annon	-11.1221
UD	-11.1222
▁directorial	-11.1224
▁wheel	-11.1225
indulgent	-11.1225
▁robbery	-11.1227
IGHT	-11.1227
▁Kim	-11.1227
▁Dick	-11.1227
▁Angeles	-11.1227
▁Honestly	-11.1228
▁Battle	-11.1228
▁brand	-11.1228
▁Scar	-11.1228
▁Australian	-11.1229
▁partial	-11.123
▁handle	-11.123
▁Whatever	-11.123
pm	-11.1231
glorious	-11.1231
▁choppy	-11.1232
▁Diana	-11.1232
▁Stay	-11.1232
▁racist	-11.1234
▁fourth	-11.1234
▁Besides	-11.1235
▁inappropriate	-11.1236
▁huh	-11.1237
▁retarded	-11.1238
▁2/10	-11.1242
▁topless	-11.1243
▁Thank	-11.1243
▁clone	-11.1243
▁dresses	-11.1243
▁balance	-11.1244
▁finest	-11.1245
▁Acting	-11.1246
▁Nation	-11.1247
▁realism	-11.1248
▁Jan	-11.1249
▁Dave	-11.1251
▁Head	-11.1252
▁lucky	-11.1255
▁wow	-11.1256
▁pirate	-11.1264
▁Ash	-11.1264
person	-11.1265
▁Hall	-11.1267
▁introduce	-11.1269
impos	-11.1273
▁Ator	-11.1283
rum	-11.1289
▁Marsh	-11.1292
▁bound	-11.1292
▁Juliet	-11.1296
▁marketing	-11.1297
▁thrilling	-11.13
▁historically	-11.13
▁ranch	-11.1301
▁armed	-11.1302
▁tripe	-11.1306
▁Finally	-11.131
▁Morn	-11.1313
▁fu	-11.1314
▁greatness	-11.1317
▁Lion	-11.132
▁manager	-11.1321
▁repeating	-11.1321
▁flavo	-11.1321
esque	-11.1321
▁observ	-11.133
▁lifeless	-11.1332
▁Hero	-11.1336
▁dimensional	-11.1337
▁Gay	-11.1339
▁bounc	-11.1339
▁rolled	-11.134
▁bullets	-11.1354
▁Nim	-11.1361
▁heap	-11.1364
▁Ya	-11.1366
▁dub	-11.1373
ji	-11.1383
▁guts	-11.1388
▁lips	-11.1388
iva	-11.1397
▁Nav	-11.1403
▁charming	-11.1405
▁noir	-11.1409
▁finale	-11.141
▁hunter	-11.1411
▁contribut	-11.1422
▁Simpsons	-11.1422
▁Hot	-11.1423
▁legal	-11.1437
▁Air	-11.144
▁vers	-11.144
Mis	-11.1443
ulous	-11.1452
▁seeking	-11.1454
▁proceeds	-11.1457
cast	-11.1459
▁rot	-11.1463
▁dust	-11.1464
▁concentrate	-11.1478
▁experienced	-11.1487
India	-11.1499
▁recit	-11.1504
mmed	-11.1515
▁Jud	-11.1526
▁topics	-11.1527
immer	-11.1549
40	-11.1549
OWN	-11.1552
▁magical	-11.1575
▁sel	-11.1579
veral	-11.1586
mail	-11.1588
▁admir	-11.1593
▁passe	-11.1594
▁jumping	-11.1598
oid	-11.1604
▁hall	-11.1606
▁awards	-11.163
gun	-11.1635
▁popp	-11.1639
▁arc	-11.1647
tograph	-11.166
etro	-11.1669
▁pot	-11.1678
▁tool	-11.1684
mato	-11.1695
ARE	-11.1705
▁cameos	-11.1714
▁Bal	-11.1723
ika	-11.173
last	-11.1736
take	-11.1737
▁judges	-11.1756
mission	-11.1757
ocketship	-11.176
▁BE	-11.1762
▁Sad	-11.1763
wai	-11.1769
cue	-11.1772
Sh	-11.178
▁nicely	-11.1788
▁Patric	-11.1801
uge	-11.1807
vic	-11.1809
▁Bell	-11.1819
▁Wha	-11.1825
▁spots	-11.1833
▁fighter	-11.1841
▁Gal	-11.1844
▁Wors	-11.1849
▁Hi	-11.1872
▁Oscars	-11.1877
▁king	-11.1907
wan	-11.1913
▁insist	-11.192
King	-11.1958
minded	-11.1969
alo	-11.1972
IG	-11.1974
shes	-11.1979
Of	-11.1981
▁ev	-11.1994
▁pat	-11.1997
▁pale	-11.2002
▁admire	-11.2026
▁comfortabl	-11.2071
father	-11.2124
Th	-11.2131
▁temp	-11.2152
▁Nati	-11.2166
▁proceed	-11.217
▁clip	-11.2177
cher	-11.2196
olice	-11.2197
▁surreal	-11.2204
ini	-11.2213
▁Lie	-11.2225
ouch	-11.2236
▁employ	-11.2253
uster	-11.2263
▁receiv	-11.2276
lude	-11.2287
ould	-11.2294
ounce	-11.2302
struct	-11.2305
bie	-11.2318
IR	-11.2335
▁Nin	-11.234
▁squa	-11.2359
▁rever	-11.2366
world	-11.238
water	-11.2391
Evil	-11.2392
soldier	-11.2393
Second	-11.2393
Movie	-11.2394
Blood	-11.2394
spot	-11.2394
intelligent	-11.2394
Jones	-11.2394
strong	-11.2394
weight	-11.2394
black	-11.2394
wife	-11.2394
Star	-11.2395
bile	-11.2396
▁(200	-11.2397
happy	-11.2398
Joe	-11.2401
Night	-11.2402
Still	-11.2405
found	-11.2406
▁limit	-11.2407
▁si	-11.2409
▁pad	-11.2414
wolves	-11.2423
▁greed	-11.2428
▁opportunit	-11.2429
▁remove	-11.2431
▁stole	-11.2435
▁insight	-11.2439
new	-11.2439
▁sentiment	-11.2443
▁dimension	-11.2444
▁betray	-11.2444
Here	-11.2445
ternational	-11.2445
▁quest	-11.2448
neath	-11.245
▁Jordan	-11.245
▁victor	-11.2451
apocalyp	-11.2451
evolution	-11.2452
▁Terr	-11.2452
▁celebrit	-11.2452
▁illustrat	-11.2452
▁official	-11.2452
▁tremendous	-11.2452
▁virgin	-11.2452
Dudikoff	-11.2452
traffic	-11.2452
▁/>4/10	-11.2452
▁Afghanistan	-11.2452
▁Bollywood	-11.2452
▁Century	-11.2452
▁Clampett	-11.2452
▁Elizabeth	-11.2452
▁England	-11.2452
▁Everybody	-11.2452
▁Floyd	-11.2452
▁Hallmark	-11.2452
▁Hyde	-11.2452
▁Joseph	-11.2452
▁Lillith	-11.2452
▁Mitchell	-11.2452
▁RGV	-11.2452
▁Ricci	-11.2452
▁Savannah	-11.2452
▁Storm	-11.2452
▁Triangle	-11.2452
▁album	-11.2452
▁assault	-11.2452
▁backdrop	-11.2452
▁bikini	-11.2452
▁caliber	-11.2452
▁circle	-11.2452
▁clumsy	-11.2452
▁coincidence	-11.2452
▁colleague	-11.2452
▁condition	-11.2452
▁disagree	-11.2452
▁embarrassment	-11.2452
▁ensues	-11.2452
▁executive	-11.2452
▁horrifying	-11.2452
▁illegal	-11.2452
▁inaccurate	-11.2452
▁inconsistent	-11.2452
▁jewel	-11.2452
▁neurotic	-11.2452
▁nightclub	-11.2452
▁obligat	-11.2452
▁passengers	-11.2452
▁pearls	-11.2452
▁phony	-11.2452
▁population	-11.2452
▁recruit	-11.2452
▁spectrum	-11.2452
▁strike	-11.2452
▁thieves	-11.2452
▁thirty	-11.2452
▁trilogy	-11.2452
▁underground	-11.2452
▁unpleasant	-11.2452
▁unsatisfying	-11.2452
▁venture	-11.2452
▁vigilante	-11.2452
▁website	-11.2452
▁widow	-11.2452
▁1/2	-11.2452
▁1972	-11.2452
▁Behind	-11.2452
▁Damme	-11.2452
▁Exorcis	-11.2452
▁custom	-11.2452
▁deputy	-11.2452
▁devastat	-11.2452
▁frankly	-11.2452
▁plug	-11.2452
▁virus	-11.2452
▁yadda	-11.2452
brilliance	-11.2452
▁Indeed	-11.2452
▁destruction	-11.2452
▁drain	-11.2452
▁drove	-11.2452
▁edgy	-11.2452
▁fraud	-11.2452
▁spawn	-11.2452
▁WWII	-11.2452
▁Woman	-11.2452
▁afternoon	-11.2452
▁tackle	-11.2452
Bottom	-11.2452
▁Tyree	-11.2452
▁steam	-11.2452
▁Damon	-11.2452
▁firm	-11.2452
▁Turner	-11.2452
▁Wanda	-11.2452
▁communication	-11.2452
▁digital	-11.2452
▁gloss	-11.2452
▁pray	-11.2452
▁rational	-11.2452
▁resume	-11.2452
▁sweat	-11.2452
OTHER	-11.2452
▁adopt	-11.2452
▁radioactive	-11.2452
▁dispos	-11.2452
▁lord	-11.2452
▁woeful	-11.2452
▁Univers	-11.2452
▁afford	-11.2452
thirst	-11.2453
▁quasi	-11.2453
▁vacation	-11.2453
▁weather	-11.2453
▁filth	-11.2453
▁informative	-11.2453
smoking	-11.2453
▁downfall	-11.2453
▁Lovecraft	-11.2453
▁Through	-11.2453
▁grainy	-11.2453
▁declare	-11.2453
▁ambi	-11.2453
▁School	-11.2453
▁aircraft	-11.2453
▁Hurt	-11.2453
▁Thankfully	-11.2453
▁Fiction	-11.2453
▁confusion	-11.2453
▁Kathy	-11.2453
▁calm	-11.2453
▁vivid	-11.2453
▁Jackass	-11.2453
▁facial	-11.2453
▁stalk	-11.2453
khan	-11.2453
▁trace	-11.2453
▁imaginable	-11.2453
▁dominate	-11.2453
▁2007	-11.2453
▁genetic	-11.2453
▁smash	-11.2453
▁vicious	-11.2453
▁path	-11.2453
▁chunk	-11.2454
▁100%	-11.2454
▁grasp	-11.2454
▁attach	-11.2454
▁spook	-11.2454
▁1930	-11.2454
▁psychic	-11.2454
▁unbearable	-11.2454
▁Eyes	-11.2454
mistress	-11.2454
▁cloud	-11.2454
▁Theater	-11.2454
▁Denn	-11.2455
▁Planet	-11.2455
▁translation	-11.2455
▁Showtime	-11.2455
▁harmless	-11.2455
▁decline	-11.2455
▁Linne	-11.2455
▁similarities	-11.2455
▁East	-11.2455
▁hunk	-11.2456
▁Shame	-11.2456
▁Michelle	-11.2456
▁hung	-11.2456
▁scriptwriter	-11.2456
▁lens	-11.2456
▁static	-11.2456
▁uncle	-11.2456
▁Candy	-11.2456
▁survival	-11.2457
▁grind	-11.2457
▁thick	-11.2457
▁wack	-11.2457
▁Bush	-11.2457
▁countryside	-11.2457
▁cents	-11.2458
▁hideous	-11.2458
▁Harry	-11.2459
▁Emil	-11.2459
▁foolish	-11.2459
udge	-11.2459
ugby	-11.2459
▁Hind	-11.246
▁brick	-11.246
ROM	-11.246
▁Korean	-11.2461
▁slave	-11.2461
▁nearby	-11.2462
▁FX	-11.2462
▁cabin	-11.2462
▁DON	-11.2464
▁Rita	-11.2464
Jaws	-11.2464
▁tire	-11.2464
▁winter	-11.2465
▁blast	-11.2465
▁Personally	-11.2465
▁sail	-11.2465
▁pathetically	-11.2465
▁Return	-11.2466
▁Italy	-11.2466
▁Robo	-11.2466
▁Street	-11.2468
▁bias	-11.2468
▁affection	-11.2469
▁Lang	-11.2469
▁sideline	-11.2469
▁bubble	-11.2472
Eye	-11.2472
▁Austin	-11.2473
▁phrase	-11.2473
▁Club	-11.2473
▁policeman	-11.2473
▁Code	-11.2473
▁Direct	-11.2474
▁Gate	-11.2474
voting	-11.2474
!!!!!!	-11.2475
▁campus	-11.2475
▁=	-11.2476
▁everyday	-11.2476
▁Johnson	-11.2477
▁bigot	-11.2477
Turn	-11.2477
Wor	-11.2477
▁Road	-11.2477
mination	-11.2478
▁cock	-11.2478
▁dumbest	-11.248
▁meander	-11.2481
▁worship	-11.2481
▁cup	-11.2481
▁Fine	-11.2482
▁wage	-11.2482
▁ranger	-11.2484
▁tribe	-11.2485
▁busy	-11.2488
▁mill	-11.2488
▁Hellraiser	-11.2489
▁cheek	-11.2489
▁milk	-11.249
▁exit	-11.2492
▁Pep	-11.2492
▁photographed	-11.2494
▁sec	-11.2494
je	-11.2495
▁Ku	-11.2495
▁Army	-11.2495
▁tense	-11.2496
▁beast	-11.2497
fanatic	-11.2497
▁stoned	-11.2497
▁Andrew	-11.2498
▁improve	-11.2501
eyed	-11.2502
▁arrogant	-11.2503
▁lonely	-11.2504
▁III	-11.2505
▁fortune	-11.2506
▁Dear	-11.2508
▁factory	-11.2508
▁Nick	-11.251
▁desired	-11.251
Bride	-11.2515
▁101	-11.2518
▁select	-11.2519
▁recommendation	-11.2519
▁needless	-11.2522
▁setup	-11.2525
▁improved	-11.2526
Normal	-11.2527
▁outset	-11.2528
▁cutting	-11.2529
etti	-11.2532
lend	-11.2535
▁Granted	-11.2535
▁mistaken	-11.2539
▁disappeared	-11.2539
▁stupidest	-11.254
▁conclude	-11.2541
▁Histor	-11.2541
▁counter	-11.2549
hl	-11.255
▁outright	-11.255
▁distracting	-11.2557
▁Say	-11.2559
▁upper	-11.2559
▁feed	-11.2562
▁Soon	-11.2564
▁users	-11.257
▁format	-11.257
▁referr	-11.2572
▁Anna	-11.2575
DAY	-11.2576
gage	-11.2583
yet	-11.2583
polar	-11.2586
▁Brothers	-11.2587
▁survivors	-11.2587
▁Kai	-11.2591
OUR	-11.2596
Cherry	-11.2596
▁dumber	-11.2596
▁staged	-11.2597
▁swing	-11.2598
▁2"	-11.2601
▁Welles	-11.2604
▁mari	-11.2605
▁returned	-11.2606
▁Lost	-11.2609
▁Victoria	-11.261
warm	-11.2611
▁failing	-11.2618
evy	-11.2624
▁stated	-11.2624
Tom	-11.2626
▁Burns	-11.2627
7)	-11.2629
▁mus	-11.2633
▁designer	-11.2637
River	-11.2648
-20	-11.2649
▁overuse	-11.2651
▁forbidd	-11.2653
▁IQ	-11.2657
▁chased	-11.2661
▁painting	-11.2665
ough	-11.2671
▁fired	-11.2685
▁aired	-11.2697
▁comb	-11.2702
▁Ph	-11.2712
▁tempt	-11.2721
▁prob	-11.2726
▁coat	-11.2739
98	-11.2748
▁intentional	-11.2755
▁cake	-11.2762
▁Spi	-11.2769
▁(199	-11.2773
▁degrad	-11.2778
▁prostitutes	-11.2782
▁commented	-11.279
dian	-11.2804
▁MU	-11.2817
Mak	-11.2821
▁Gr	-11.2825
▁goodness	-11.2836
▁badness	-11.2837
goer	-11.2843
▁substitute	-11.2847
▁LO	-11.2853
▁Ze	-11.2864
▁Ric	-11.2883
▁mins	-11.2891
▁west	-11.29
zed	-11.291
▁completed	-11.2919
▁Bor	-11.2936
▁jet	-11.2951
lip	-11.2954
▁dealt	-11.2956
▁settle	-11.2963
▁disappears	-11.2969
▁Yo	-11.298
▁Ham	-11.2995
▁hum	-11.3
ipped	-11.3016
▁Gene	-11.3115
▁slum	-11.3124
▁Mag	-11.3128
rick	-11.3135
▁bob	-11.3149
▁explore	-11.3174
▁mon	-11.3176
▁inform	-11.3213
aki	-11.3214
▁(!)	-11.3231
*****	-11.3241
hart	-11.3254
▁Dal	-11.3298
aves	-11.3315
▁Pare	-11.3321
▁Unc	-11.3345
▁rac	-11.335
▁settl	-11.3351
Dr	-11.3352
▁believ	-11.3388
ega	-11.3393
ahl	-11.3417
▁$5	-11.3427
▁Nig	-11.3428
▁ver	-11.3443
earned	-11.346
ood	-11.3494
graphy	-11.3515
▁figur	-11.3516
headed	-11.3556
DY	-11.3592
▁gag	-11.3595
▁Simpson	-11.3601
▁breast	-11.3606
▁compar	-11.3607
▁sport	-11.3609
▁creator	-11.3619
▁blur	-11.3632
▁Sla	-11.3651
addle	-11.3661
▁Unlik	-11.3662
▁Kar	-11.3675
orrow	-11.3694
▁improv	-11.37
servant	-11.371
nything	-11.3716
tanic	-11.3719
▁expos	-11.3721
sided	-11.3729
horny	-11.3736
gree	-11.3749
▁SH	-11.3755
▁refer	-11.3757
▁photograph	-11.3767
▁disgust	-11.3771
CIA	-11.3774
lapping	-11.3779
▁authentic	-11.378
most	-11.3787
ception	-11.3799
▁Pie	-11.3801
know	-11.3807
▁refuge	-11.3809
▁blond	-11.3813
SPOILER	-11.3813
▁complet	-11.3814
comfortabl	-11.3819
fortune	-11.3819
Obviously	-11.3821
word	-11.3822
quit	-11.3822
foot	-11.3822
Sadly	-11.3822
correct	-11.3822
adventure	-11.3822
▁possess	-11.3822
Please	-11.3822
Love	-11.3822
Come	-11.3822
thriller	-11.3823
white	-11.3823
actually	-11.3823
holes	-11.3823
poor	-11.3823
Sorry	-11.3824
ody	-11.3825
scene	-11.3826
sorry	-11.3828
box	-11.3829
instead	-11.3829
check	-11.3829
▁Lor	-11.383
▁identi	-11.383
▁impress	-11.383
master	-11.3834
▁establish	-11.3834
Who	-11.3834
wow	-11.3838
known	-11.3841
▁capital	-11.3843
▁adequate	-11.3843
▁instant	-11.3847
either	-11.3847
oops	-11.3847
avan	-11.3848
▁prepare	-11.385
▁jealous	-11.3856
▁dirt	-11.3858
Bill	-11.3859
both	-11.386
▁Australia	-11.386
orious	-11.3861
▁cam	-11.3864
▁engine	-11.3866
ookie	-11.3869
▁Law	-11.3871
producer	-11.3873
▁preach	-11.3876
IVE	-11.3877
▁imagina	-11.3877
annibal	-11.3879
cript	-11.388
▁tech	-11.388
ecommended	-11.388
itude	-11.3881
▁Turk	-11.3881
▁Hamilton	-11.3881
▁medieval	-11.3881
Chappelle	-11.3881
Predator	-11.3881
í	-11.3881
▁/>3/10	-11.3881
▁1981	-11.3881
▁9/11	-11.3881
▁Alucard	-11.3881
▁Bulgaria	-11.3881
▁Certainly	-11.3881
▁Curtis	-11.3881
▁DEAD	-11.3881
▁Diamond	-11.3881
▁Fortunately	-11.3881
▁Govinda	-11.3881
▁Hector	-11.3881
▁Henriksen	-11.3881
▁Leonora	-11.3881
▁Levinson	-11.3881
▁McLaren	-11.3881
▁Milligan	-11.3881
▁NASA	-11.3881
▁Nickelodeon	-11.3881
▁Quentin	-11.3881
▁Snider	-11.3881
▁Soviet	-11.3881
▁Spaghetti	-11.3881
▁Spielberg	-11.3881
▁Vaughn	-11.3881
▁YouTube	-11.3881
▁advertising	-11.3881
▁antagonist	-11.3881
▁atmospheric	-11.3881
▁camcorder	-11.3881
▁consequences	-11.3881
▁cruci	-11.3881
▁cynical	-11.3881
▁dynamite	-11.3881
▁econom	-11.3881
▁elaborate	-11.3881
▁fiancé	-11.3881
▁frustrating	-11.3881
▁frustration	-11.3881
▁gorgeous	-11.3881
▁gorilla	-11.3881
▁gravity	-11.3881
▁inevitable	-11.3881
▁innovative	-11.3881
▁insurgents	-11.3881
▁irritate	-11.3881
▁license	-11.3881
▁mechanical	-11.3881
▁mirror	-11.3881
▁narrator	-11.3881
▁patience	-11.3881
▁persuade	-11.3881
▁pregnant	-11.3881
▁religion	-11.3881
▁ridicule	-11.3881
▁significance	-11.3881
▁simulat	-11.3881
▁smooth	-11.3881
▁squeeze	-11.3881
▁squirm	-11.3881
▁storytelling	-11.3881
▁stylish	-11.3881
▁subsequent	-11.3881
▁unnatural	-11.3881
▁untalented	-11.3881
▁whereabouts	-11.3881
▁yesterday	-11.3881
▁Argento	-11.3881
▁Hubert	-11.3881
▁Jonathan	-11.3881
▁POW	-11.3881
▁Sunday	-11.3881
▁WITH	-11.3881
▁acquir	-11.3881
▁compromis	-11.3881
▁concert	-11.3881
▁education	-11.3881
▁exotic	-11.3881
▁fodder	-11.3881
▁giggl	-11.3881
▁grotesque	-11.3881
▁hokey	-11.3881
▁juvenile	-11.3881
▁legitimate	-11.3881
▁nominated	-11.3881
▁ocean	-11.3881
▁ourselves	-11.3881
▁parallel	-11.3881
▁perspective	-11.3881
▁qualify	-11.3881
▁serving	-11.3881
▁travesty	-11.3881
Kristin	-11.3881
▁Gerda	-11.3881
▁Hughes	-11.3881
▁LTL	-11.3881
▁Lambs	-11.3881
▁Writer	-11.3881
▁babies	-11.3881
▁dreary	-11.3881
▁drift	-11.3881
▁harass	-11.3881
▁insanity	-11.3881
▁mediocrity	-11.3881
▁obsessi	-11.3881
▁sustain	-11.3881
▁Machine	-11.3881
▁demise	-11.3881
▁guide	-11.3881
▁Classic	-11.3881
▁Drake	-11.3881
▁Foster	-11.3881
▁Pryor	-11.3881
▁Slayer	-11.3881
▁commentator	-11.3881
▁honor	-11.3881
▁maniac	-11.3881
Raymond	-11.3881
▁Jeffrey	-11.3881
▁garage	-11.3881
▁gentle	-11.3881
▁visible	-11.3881
▁Scout	-11.3881
▁glaring	-11.3881
▁glorifi	-11.3881
▁stomp	-11.3881
▁Republicans	-11.3881
▁region	-11.3881
▁Dallas	-11.3881
▁pervert	-11.3881
▁extensi	-11.3881
▁ABC	-11.3881
▁Weird	-11.3881
▁south	-11.3881
▁turd	-11.3881
▁lookalike	-11.3881
provoking	-11.3881
▁convert	-11.3881
▁infect	-11.3881
▁loyal	-11.3881
▁medium	-11.3881
▁volume	-11.3881
▁Hayes	-11.3881
▁Busey	-11.3881
▁Martel	-11.3881
▁babes	-11.3881
▁inherit	-11.3881
▁Sanders	-11.3881
▁inconsistencies	-11.3881
▁nightmare	-11.3881
▁shelter	-11.3881
▁Silver	-11.3881
▁centre	-11.3881
WHY	-11.3881
▁claustrophobic	-11.3881
▁Britain	-11.3881
▁captain	-11.3881
▁limitations	-11.3881
▁prize	-11.3881
▁chore	-11.3881
://	-11.3881
▁Langdon	-11.3881
▁ghastly	-11.3881
▁defeat	-11.3881
▁overdone	-11.3881
▁backwards	-11.3881
▁sketch	-11.3882
▁slapped	-11.3882
▁yawn	-11.3882
▁nerve	-11.3882
▁overacts	-11.3882
▁Jerem	-11.3882
▁nick	-11.3882
▁thankfully	-11.3882
Crime	-11.3882
▁tiresome	-11.3882
▁Tune	-11.3882
▁coherent	-11.3882
▁Graves	-11.3882
Stranded	-11.3882
▁rotten	-11.3882
▁Dawn	-11.3882
▁steer	-11.3882
▁Short	-11.3882
▁Green	-11.3882
▁Combs	-11.3882
▁Compare	-11.3882
▁Extra	-11.3882
▁Definitely	-11.3882
▁torment	-11.3882
▁chair	-11.3882
▁option	-11.3882
▁broad	-11.3882
▁Jewish	-11.3882
▁Berlin	-11.3882
▁mutant	-11.3883
ODC	-11.3883
▁devil	-11.3883
▁tele	-11.3883
▁2001	-11.3883
▁punishment	-11.3883
▁wimp	-11.3883
▁resemblance	-11.3883
▁macho	-11.3883
▁Barker	-11.3883
▁promotion	-11.3883
▁Cleef	-11.3883
▁romp	-11.3883
▁Duval	-11.3883
▁Jewel	-11.3883
▁Driver	-11.3883
▁missile	-11.3883
▁weekend	-11.3883
▁progressive	-11.3883
▁culminat	-11.3883
▁featurette	-11.3883
▁personalities	-11.3883
▁rewrite	-11.3884
▁info	-11.3884
▁snack	-11.3884
▁riddle	-11.3884
▁hatred	-11.3884
anni	-11.3884
▁patriot	-11.3884
historic	-11.3884
▁leap	-11.3884
▁countries	-11.3884
▁practice	-11.3884
▁underneath	-11.3884
▁gunfight	-11.3884
▁eight	-11.3884
▁dorm	-11.3884
▁waist	-11.3884
▁HBO	-11.3885
▁miracle	-11.3885
▁Lovers	-11.3885
▁liking	-11.3885
▁mature	-11.3885
▁sky	-11.3885
▁Latin	-11.3885
▁bond	-11.3886
▁nostalgia	-11.3886
▁hipp	-11.3886
▁pornography	-11.3886
▁ripoff	-11.3886
▁Cosgrove	-11.3886
▁Duvivier	-11.3886
▁Portuguese	-11.3886
▁Wynorski	-11.3886
▁creativity	-11.3886
▁hopefully	-11.3886
▁pipe	-11.3886
▁addict	-11.3886
Porno	-11.3886
▁confession	-11.3886
▁representation	-11.3887
▁proof	-11.3887
▁vol	-11.3887
▁Jung	-11.3887
▁snowman	-11.3887
▁slim	-11.3888
Hara	-11.3888
▁psychologist	-11.3888
▁Davies	-11.3888
▁mold	-11.3888
▁pound	-11.3888
▁diner	-11.3889
▁minority	-11.3889
▁stopping	-11.389
▁fangs	-11.389
▁Corman	-11.389
▁replacement	-11.389
atomic	-11.3891
▁Darkness	-11.3891
▁Four	-11.3892
▁liar	-11.3892
▁behave	-11.3892
▁formulaic	-11.3892
▁function	-11.3892
▁Asia	-11.3892
▁Better	-11.3892
▁Long	-11.3892
▁bearable	-11.3894
▁2000	-11.3894
▁labor	-11.3894
▁Karl	-11.3894
▁Hayd	-11.3894
▁Bates	-11.3895
blow	-11.3895
▁shine	-11.3895
▁sold	-11.3895
▁Lynn	-11.3896
▁obsessed	-11.3896
▁sophisticated	-11.3896
▁Blair	-11.3896
▁Daniel	-11.3896
▁Elm	-11.3896
▁shadow	-11.3896
▁2006	-11.3896
▁clueless	-11.3896
▁Pink	-11.3897
▁Actor	-11.3897
▁Conan	-11.3897
▁lion	-11.3897
▁invade	-11.3897
▁masses	-11.3899
▁Deni	-11.3899
▁pig	-11.3899
▁lifestyle	-11.39
▁demonic	-11.39
Furthermore	-11.39
▁Bette	-11.3901
▁Deep	-11.3901
stage	-11.3901
▁happily	-11.3901
▁distinctly	-11.3901
▁showdown	-11.3901
▁childish	-11.3902
▁irony	-11.3902
▁Trust	-11.3903
▁chip	-11.3904
▁helpful	-11.3904
▁crashes	-11.3904
▁caper	-11.3905
▁bitten	-11.3905
▁Hollow	-11.3906
▁Jost	-11.3906
▁increase	-11.3906
▁dropping	-11.3907
▁Port	-11.3907
▁duo	-11.3907
olph	-11.3909
▁hitch	-11.3909
▁Alice	-11.391
naught	-11.3911
▁frequently	-11.3913
▁Alas	-11.3913
▁Cap	-11.3913
▁accomplished	-11.3914
▁crushed	-11.3914
▁satisfied	-11.3915
▁darkness	-11.3917
▁squad	-11.3918
conscious	-11.3919
Jur	-11.3919
▁FF	-11.392
▁Phil	-11.392
▁sexist	-11.3921
▁Kate	-11.3921
▁cheated	-11.3922
▁cris	-11.3925
aunch	-11.3925
▁colorful	-11.3926
▁inventor	-11.3926
▁revi	-11.3927
▁/>2.	-11.3927
▁Up	-11.3929
▁disgusted	-11.3929
▁reck	-11.3929
▁rope	-11.393
▁thoughtful	-11.3932
▁handled	-11.3932
▁Human	-11.3932
▁Consider	-11.3934
▁Myster	-11.3934
▁Real	-11.3935
▁overwhelming	-11.3936
▁cheating	-11.3937
ICE	-11.3937
▁dancer	-11.3939
troops	-11.394
▁disliked	-11.3943
▁severely	-11.3943
▁invented	-11.3944
▁/>3.	-11.3945
▁understandable	-11.3945
▁explored	-11.3945
▁Joel	-11.3946
▁Later	-11.3948
▁Gun	-11.3949
▁Tale	-11.395
▁Cold	-11.3951
▁*****	-11.3953
▁heroin	-11.3955
▁Hardy	-11.3957
▁frontal	-11.3959
▁fifty	-11.3959
▁Surely	-11.3959
▁Within	-11.3961
▁Sean	-11.3963
ONE	-11.3966
▁Rocky	-11.3966
rray	-11.3969
toxic	-11.3972
etwork	-11.3974
▁studying	-11.3977
▁Bern	-11.3977
▁Mont	-11.3979
▁billed	-11.3982
▁wounded	-11.3988
▁snapp	-11.3991
▁bush	-11.3993
▁Q	-11.3995
▁stretched	-11.3995
▁Save	-11.4
▁ranting	-11.4005
▁hooker	-11.4006
phy	-11.4009
thless	-11.4014
▁rain	-11.4017
▁Hand	-11.4017
▁reverse	-11.4023
▁criticize	-11.4027
▁Burt	-11.4028
▁horn	-11.4029
▁claimed	-11.403
nett	-11.4031
▁wine	-11.4032
Broke	-11.404
urban	-11.4042
anne	-11.4047
▁complaining	-11.4048
▁convincingly	-11.4058
KE	-11.4067
liced	-11.4068
▁Must	-11.4077
attered	-11.4095
▁Lou	-11.4101
▁repress	-11.4105
▁promote	-11.4106
▁Fle	-11.4108
stood	-11.4108
DU	-11.4109
▁boarding	-11.411
▁grating	-11.4115
acabr	-11.4119
▁whoever	-11.4123
▁gen	-11.4135
▁uniform	-11.4139
▁escaped	-11.4148
orbid	-11.4158
▁terroriz	-11.4158
?????	-11.4175
5%	-11.4182
▁Bon	-11.4184
▁bitch	-11.4186
36	-11.4197
▁respected	-11.4213
hav	-11.4213
WO	-11.4219
ridden	-11.4223
▁193	-11.4266
aka	-11.4269
▁beard	-11.4271
▁Jur	-11.4281
lways	-11.4288
▁Pan	-11.4293
▁pose	-11.4294
TER	-11.4297
▁Ker	-11.4301
manda	-11.4306
▁commenter	-11.4322
loria	-11.4326
ronic	-11.4337
did	-11.4351
▁Baron	-11.4374
▁preferr	-11.4378
licate	-11.4392
▁Dumb	-11.4401
ssassination	-11.4413
▁mut	-11.4414
once	-11.4417
cloth	-11.4418
▁Wallac	-11.4421
▁dat	-11.4421
duty	-11.4427
rip	-11.4428
uddy	-11.4431
ulent	-11.4433
▁Gh	-11.4445
▁ants	-11.4451
▁Core	-11.4457
▁quarter	-11.4459
eets	-11.4467
2"	-11.4475
▁incapa	-11.4476
cine	-11.4478
HR	-11.4479
atroni	-11.4485
panic	-11.4488
UL	-11.4494
▁grim	-11.45
Blu	-11.4517
▁remark	-11.4521
OUT	-11.4553
▁litera	-11.4583
▁gap	-11.4583
▁Mid	-11.4621
46	-11.4626
llows	-11.4627
▁verg	-11.4643
▁skipp	-11.4644
finitely	-11.465
IST	-11.4654
ERE	-11.4657
▁span	-11.4664
▁cram	-11.4679
Bar	-11.4683
wal	-11.4685
unny	-11.4685
NG	-11.4729
▁Roman	-11.4734
▁revolv	-11.475
▁bla	-11.4782
▁bug	-11.4799
▁Trac	-11.4856
▁prop	-11.4858
▁plac	-11.4878
▁exp	-11.488
▁clo	-11.4893
▁tan	-11.4894
rock	-11.492
▁operati	-11.4926
25	-11.4931
otte	-11.4954
TH	-11.4975
▁24	-11.4997
▁Act	-11.5
change	-11.5031
▁JU	-11.5066
▁Run	-11.5088
dication	-11.5099
▁equ	-11.5102
!!!!!	-11.5107
uel	-11.5115
▁WE	-11.5123
▁Fair	-11.5135
▁grip	-11.5156
tube	-11.5185
orton	-11.5219
dela	-11.5229
▁blam	-11.5231
olished	-11.5259
▁preview	-11.5276
▁Brook	-11.5278
▁gut	-11.5278
cross	-11.5282
ambo	-11.529
▁rag	-11.5294
14	-11.5331
▁sale	-11.5348
▁civil	-11.5352
▁harm	-11.5361
▁chop	-11.5365
▁lip	-11.537
blo	-11.5385
▁(197	-11.5388
generated	-11.5389
tile	-11.5389
Gere	-11.5391
stead	-11.5429
ume	-11.5432
erotic	-11.5433
▁cheat	-11.5434
look	-11.5444
will	-11.5452
elected	-11.5458
insert	-11.546
▁flip	-11.5463
▁numb	-11.5465
▁argu	-11.5473
▁mode	-11.5474
▁bow	-11.5476
▁organ	-11.5477
$	-11.5477
cream	-11.5479
▁overwhelm	-11.5483
Doctor	-11.5485
Consider	-11.5485
2/10	-11.5486
Meanwhile	-11.5487
quirky	-11.5487
Basically	-11.5487
Thank	-11.5487
Probably	-11.5488
Plan	-11.5488
Seriously	-11.5488
numbers	-11.5488
standard	-11.5488
Yeah	-11.5489
yeah	-11.5489
George	-11.5489
Richard	-11.5489
perhaps	-11.5489
Hollywood	-11.549
despi	-11.549
character	-11.549
because	-11.549
people	-11.549
after	-11.549
God	-11.549
serious	-11.5491
production	-11.5491
balance	-11.5491
Instead	-11.5491
Later	-11.5492
Very	-11.5494
Every	-11.5496
▁shout	-11.5497
flick	-11.5498
▁aesthetic	-11.55
half	-11.5504
throw	-11.5505
▁dang	-11.5508
camera	-11.551
▁frequent	-11.551
ALLY	-11.5512
▁eventual	-11.5513
Never	-11.5515
▁craze	-11.5516
▁ultimate	-11.5518
▁Davi	-11.5521
kick	-11.5523
Sex	-11.5524
▁femini	-11.5525
▁abduct	-11.5533
▁studi	-11.5534
mostly	-11.5534
▁Mario	-11.5535
WAY	-11.5536
▁Under	-11.5539
xperts	-11.554
▁symbol	-11.554
▁liber	-11.5542
▁alcohol	-11.5544
▁Lind	-11.5544
lockbuster	-11.5545
imaginative	-11.5545
etween	-11.5545
stitute	-11.5546
>	-11.5546
aranormal	-11.5546
▁Wonder	-11.5546
▁Rubin	-11.5547
▁strateg	-11.5548
deliberate	-11.5548
magnificent	-11.5548
▁cigar	-11.5548
▁exorcis	-11.5548
▁razor	-11.5548
Airplane	-11.5548
Dungeon	-11.5548
HEART	-11.5548
RATING	-11.5548
achieving	-11.5548
omebody	-11.5548
sarcasm	-11.5548
utobiography	-11.5548
▁/>1/10	-11.5548
▁1987	-11.5548
▁Academy	-11.5548
▁Almodovar	-11.5548
▁Arizona	-11.5548
▁Basterds	-11.5548
▁Bihn	-11.5548
▁Broadway	-11.5548
▁Cheerlead	-11.5548
▁Colonel	-11.5548
▁Complete	-11.5548
▁Concorde	-11.5548
▁Democrat	-11.5548
▁Dietrich	-11.5548
▁Fantasy	-11.5548
▁Gabriel	-11.5548
▁Galaxy	-11.5548
▁Griffith	-11.5548
▁HORROR	-11.5548
▁Jacob	-11.5548
▁Lupino	-11.5548
▁MAGOO	-11.5548
▁Manhattan	-11.5548
▁Margera	-11.5548
▁Matrix	-11.5548
▁Miranda	-11.5548
▁Naturally	-11.5548
▁Netflix	-11.5548
▁SHOW	-11.5548
▁Samantha	-11.5548
▁Shepherd	-11.5548
▁Spears	-11.5548
▁Spiderman	-11.5548
▁Sutherland	-11.5548
▁Sylvi	-11.5548
▁Thompson	-11.5548
▁Treadwell	-11.5548
▁Underdog	-11.5548
▁VILLA	-11.5548
▁Waverly	-11.5548
▁advantage	-11.5548
▁basket	-11.5548
▁bridge	-11.5548
▁censor	-11.5548
▁chemical	-11.5548
▁companies	-11.5548
▁compliment	-11.5548
▁condemn	-11.5548
▁contrary	-11.5548
▁corridor	-11.5548
▁disastrous	-11.5548
▁disregard	-11.5548
▁dynamic	-11.5548
▁empathy	-11.5548
▁eternity	-11.5548
▁ethnic	-11.5548
▁exhibit	-11.5548
▁exterior	-11.5548
▁fiasco	-11.5548
▁fortunate	-11.5548
▁grieving	-11.5548
▁imprison	-11.5548
▁ingredients	-11.5548
▁injury	-11.5548
▁intimidat	-11.5548
▁irrelevant	-11.5548
▁kitchen	-11.5548
▁league	-11.5548
▁lovable	-11.5548
▁manipulated	-11.5548
▁misleading	-11.5548
▁misunderstand	-11.5548
▁monologue	-11.5548
▁neighborhood	-11.5548
▁orphanage	-11.5548
▁philosophy	-11.5548
▁pleasing	-11.5548
▁predecessor	-11.5548
▁prejudice	-11.5548
▁preparation	-11.5548
▁professor	-11.5548
▁prominent	-11.5548
▁proportions	-11.5548
▁register	-11.5548
▁screech	-11.5548
▁sensitive	-11.5548
▁sloppi	-11.5548
▁sorority	-11.5548
▁stunned	-11.5548
▁substanti	-11.5548
▁suicidal	-11.5548
▁supreme	-11.5548
▁synopsis	-11.5548
▁tattoo	-11.5548
▁tepid	-11.5548
▁territory	-11.5548
▁triangle	-11.5548
▁triumph	-11.5548
▁undeveloped	-11.5548
▁unlikable	-11.5548
▁unnecessarily	-11.5548
▁vessel	-11.5548
▁voyage	-11.5548
fetched	-11.5548
▁'80	-11.5548
▁Alpha	-11.5548
▁NYC	-11.5548
▁Weapon	-11.5548
▁embrace	-11.5548
▁feeble	-11.5548
▁hackneyed	-11.5548
▁humiliat	-11.5548
▁prequel	-11.5548
▁resolution	-11.5548
▁shield	-11.5548
▁sinister	-11.5548
▁snooze	-11.5548
▁spiral	-11.5548
▁supply	-11.5548
PLUMP	-11.5548
hipwreck	-11.5548
zzle	-11.5548
▁Everett	-11.5548
▁Glenn	-11.5548
▁Hudson	-11.5548
▁MGM	-11.5548
▁NBC	-11.5548
▁Pierce	-11.5548
▁Sandler	-11.5548
▁Shatner	-11.5548
▁Tucker	-11.5548
▁buzz	-11.5548
▁dedicate	-11.5548
▁rapidly	-11.5548
▁Brando	-11.5548
▁choreograph	-11.5548
▁delightful	-11.5548
▁gritty	-11.5548
▁request	-11.5548
-16	-11.5548
▁crippl	-11.5548
▁devour	-11.5548
▁identify	-11.5548
▁litter	-11.5548
▁Field	-11.5548
▁Welch	-11.5548
▁civilians	-11.5548
▁pride	-11.5548
▁MIAs	-11.5548
▁Ollie	-11.5548
▁marvel	-11.5548
▁qualifie	-11.5548
▁dawn	-11.5548
▁fetish	-11.5548
▁mayhem	-11.5548
▁clinic	-11.5548
▁Radu	-11.5548
▁magn	-11.5548
▁Cream	-11.5548
▁Ellen	-11.5548
▁disabled	-11.5548
▁vengeance	-11.5548
▁Brain	-11.5548
▁Carrot	-11.5548
▁Until	-11.5548
▁havoc	-11.5548
▁demonstrat	-11.5548
▁heaven	-11.5548
▁dismal	-11.5548
▁concoct	-11.5548
▁flames	-11.5548
▁hysterical	-11.5548
▁portal	-11.5548
▁blew	-11.5548
!!!!!!!!!!!!	-11.5548
▁beware	-11.5548
▁ensure	-11.5548
▁ladies	-11.5548
▁auteur	-11.5548
▁darn	-11.5548
MAKE	-11.5548
elusion	-11.5548
▁stairs	-11.5548
motivated	-11.5548
▁Aaron	-11.5548
Legend	-11.5548
▁Forget	-11.5548
Enough	-11.5548
▁Anderson	-11.5548
▁narcissistic	-11.5548
▁rude	-11.5548
▁facility	-11.5548
▁miniseries	-11.5548
▁mutilat	-11.5548
▁Irving	-11.5548
▁sample	-11.5548
lusive	-11.5548
▁meteor	-11.5548
▁Tell	-11.5548
▁Adventure	-11.5548
▁blessing	-11.5548
▁grandfather	-11.5548
▁Curry	-11.5548
▁Simple	-11.5548
▁straightforward	-11.5548
▁birthday	-11.5548
▁cloning	-11.5548
▁Wesley	-11.5548
oyote	-11.5548
▁employee	-11.5548
▁shift	-11.5548
▁afterwards	-11.5548
▁divide	-11.5548
▁Wild	-11.5548
▁Serb	-11.5549
▁cobbl	-11.5549
hhh	-11.5549
▁depart	-11.5549
▁2008	-11.5549
.99	-11.5549
▁humble	-11.5549
pick	-11.5549
2/5	-11.5549
palace	-11.5549
▁Morris	-11.5549
▁depressed	-11.5549
▁spiritual	-11.5549
▁ambigu	-11.5549
roopers	-11.5549
▁2005	-11.5549
▁Pleasence	-11.5549
▁electricity	-11.5549
▁pathos	-11.5549
▁enlist	-11.5549
▁swamp	-11.5549
▁imitation	-11.5549
▁Clint	-11.5549
▁baseball	-11.5549
▁hammy	-11.5549
▁Train	-11.555
▁Brink	-11.555
▁Warren	-11.555
▁Spike	-11.555
Hulk	-11.555
▁fond	-11.555
▁Demons	-11.555
▁Bava	-11.555
▁unfair	-11.555
▁reprise	-11.555
▁rising	-11.555
▁airport	-11.555
▁occurred	-11.555
▁whiny	-11.555
▁mount	-11.555
▁firing	-11.555
▁timing	-11.555
▁collective	-11.555
damaged	-11.555
▁gunshot	-11.5551
▁Nicholas	-11.5551
▁charismatic	-11.5551
▁Reality	-11.5551
▁sappy	-11.5551
▁$3	-11.5551
▁GOD	-11.5551
▁auto	-11.5551
▁vital	-11.5551
▁paranoia	-11.5551
▁limp	-11.5551
▁strive	-11.5551
▁Mind	-11.5551
▁Howell	-11.5551
▁thrust	-11.5551
antastic	-11.5551
▁Zellweger	-11.5552
▁alcoholic	-11.5552
▁Hope	-11.5552
▁chuckle	-11.5552
▁arouse	-11.5552
▁unremarkable	-11.5552
▁Everest	-11.5552
▁debat	-11.5552
▁modest	-11.5552
▁fluff	-11.5553
▁stress	-11.5553
▁poker	-11.5553
▁property	-11.5553
▁zone	-11.5553
▁scarie	-11.5553
▁linger	-11.5553
▁baddies	-11.5553
▁loop	-11.5553
▁flair	-11.5553
▁tax	-11.5553
▁involvement	-11.5553
▁cohesive	-11.5554
▁Alba	-11.5554
▁Elam	-11.5554
▁McConaughey	-11.5554
▁Schwarzenegger	-11.5554
▁operation	-11.5554
▁considerably	-11.5554
▁rampa	-11.5554
Simply	-11.5554
▁Sara	-11.5555
▁arrival	-11.5555
▁maintain	-11.5555
▁Mummy	-11.5555
▁sadistic	-11.5555
▁Leland	-11.5555
▁tail	-11.5555
▁observation	-11.5555
NSA	-11.5556
▁winner	-11.5556
▁Grand	-11.5556
▁Jay	-11.5557
▁Sweden	-11.5557
▁Light	-11.5557
▁sentimental	-11.5557
▁gum	-11.5557
▁International	-11.5558
▁arrange	-11.5558
▁Prince	-11.5558
▁bald	-11.5558
▁Willis	-11.5559
▁illness	-11.5559
▁minus	-11.5559
▁grant	-11.5559
▁payoff	-11.556
incarnat	-11.5561
▁Kong	-11.5561
▁patch	-11.5561
▁Goodman	-11.5561
simil	-11.5562
▁unreal	-11.5562
▁applaud	-11.5562
▁tv	-11.5562
▁summarize	-11.5563
▁Tea	-11.5563
▁iron	-11.5564
▁Body	-11.5564
▁momentum	-11.5564
▁engineer	-11.5565
unior	-11.5565
▁Mongolian	-11.5565
▁Scarlett	-11.5565
▁Vacation	-11.5565
▁Nobody	-11.5565
▁Steiger	-11.5565
▁WARNING	-11.5565
▁pistol	-11.5565
▁Ernest	-11.5565
▁Office	-11.5565
▁spice	-11.5565
▁sexuality	-11.5566
▁Dante	-11.5566
▁terrifying	-11.5566
▁intro	-11.5566
▁torn	-11.5566
▁sneak	-11.5566
elite	-11.5567
▁Vince	-11.5567
▁hurr	-11.5567
▁vice	-11.5567
▁cleverness	-11.5567
ACT	-11.5567
▁Today	-11.5567
▁Hank	-11.5568
▁traditional	-11.5568
hiding	-11.5568
▁advertised	-11.5568
does	-11.5569
▁Harrison	-11.5569
▁flashes	-11.5569
▁assure	-11.5569
▁meantime	-11.557
vious	-11.557
Conclusion	-11.557
▁resolved	-11.5571
▁Herman	-11.5571
▁overacting	-11.5571
▁Rich	-11.5572
▁soph	-11.5572
▁35	-11.5573
▁dement	-11.5574
▁Coen	-11.5576
▁Chil	-11.5576
▁jealousy	-11.5577
▁Fire	-11.5577
▁overlong	-11.5578
▁GO	-11.5578
▁insightful	-11.5579
▁beaten	-11.5579
▁Fisher	-11.558
▁belt	-11.558
▁dragon	-11.558
▁crazed	-11.558
▁Rip	-11.5581
▁greedy	-11.5582
▁Terry	-11.5582
▁update	-11.5582
▁JP	-11.5583
▁sur	-11.5584
▁outcast	-11.5586
▁Werewol	-11.5588
▁cancer	-11.5589
▁22	-11.5592
▁improvise	-11.5592
▁adequately	-11.5592
two	-11.5593
daring	-11.5593
▁justified	-11.5594
▁Anth	-11.5597
▁fist	-11.5598
▁stereotyped	-11.5599
▁Armageddon	-11.5599
EG	-11.5601
▁Rent	-11.5602
lving	-11.5602
Silv	-11.5604
▁initially	-11.5606
▁True	-11.5607
▁anyhow	-11.5607
▁crosses	-11.5608
▁Shaw	-11.561
▁tuned	-11.561
▁Nest	-11.561
▁Doctor	-11.5611
also	-11.5611
▁philosophi	-11.5615
▁Gray	-11.5615
▁Cry	-11.5615
▁surfer	-11.5616
▁participate	-11.5619
▁argue	-11.5621
▁butcher	-11.5625
▁hyped	-11.5628
dispute	-11.5628
guy	-11.5631
▁Away	-11.5632
▁hatch	-11.5633
▁refugee	-11.5633
▁physically	-11.5634
▁Party	-11.5636
▁appreciati	-11.5639
▁linear	-11.5639
▁TR	-11.564
emic	-11.5646
Miche	-11.5648
▁hitting	-11.5648
▁tag	-11.5652
▁abused	-11.5652
▁numbing	-11.5655
▁Kay	-11.5658
afia	-11.5661
▁alas	-11.5663
consci	-11.5671
▁Indiana	-11.5675
▁wishes	-11.5683
▁height	-11.5684
Secretary	-11.5687
▁tease	-11.5693
xter	-11.5703
▁closer	-11.5703
VEN	-11.5707
▁fuzz	-11.5709
▁asses	-11.5711
▁driven	-11.5715
leg	-11.5718
!?!	-11.572
estination	-11.5723
lop	-11.5738
▁stake	-11.5739
llies	-11.5741
remarkable	-11.5756
▁miner	-11.5762
▁Osa	-11.5767
▁junkie	-11.5774
mid	-11.5786
▁seduc	-11.5804
▁Bren	-11.5812
▁Mol	-11.5817
ku	-11.5818
▁archiv	-11.5826
▁filler	-11.5835
▁Witch	-11.5838
????	-11.5841
▁Killer	-11.5841
▁Ask	-11.5851
▁trucker	-11.5865
create	-11.5868
▁participat	-11.5878
ré	-11.5893
▁surrealis	-11.5896
Godfather	-11.5936
breaking	-11.5947
▁prov	-11.5948
arren	-11.5968
businessmen	-11.597
earing	-11.598
itto	-11.5997
post	-11.5997
EW	-11.6011
▁abusi	-11.6012
▁nav	-11.605
▁Vice	-11.6055
Hav	-11.6065
▁axe	-11.6119
drum	-11.6121
▁bone	-11.6133
▁mish	-11.6143
▁compet	-11.6152
qua	-11.6154
▁Ver	-11.6155
▁Ev	-11.6177
Dan	-11.6186
Admittedly	-11.6204
vocati	-11.6221
▁tortur	-11.6233
chio	-11.6241
▁unemploy	-11.6244
AMA	-11.625
big	-11.625
lding	-11.6259
alance	-11.6279
TOO	-11.6292
onda	-11.6329
▁shad	-11.6341
onnie	-11.6357
▁react	-11.636
▁camper	-11.6395
▁adventur	-11.6397
▁suburb	-11.6405
loud	-11.6521
lsen	-11.6527
▁infinite	-11.6529
VE	-11.656
▁translat	-11.6562
rett	-11.6585
▁elevat	-11.6599
OME	-11.6664
INE	-11.6674
▁math	-11.669
merge	-11.6701
▁Total	-11.6722
▁packag	-11.6749
bait	-11.6755
▁coma	-11.6767
clear	-11.6772
dmittedly	-11.6804
▁unde	-11.6814
▁Wall	-11.6837
lumber	-11.684
▁mute	-11.6845
▁compete	-11.6862
▁Gil	-11.6863
▁Um	-11.6868
icles	-11.687
▁stab	-11.6898
▁List	-11.6952
Tar	-11.6976
mash	-11.701
▁Leo	-11.7024
▁Budd	-11.7063
▁Assassin	-11.7126
▁mil	-11.7155
mont	-11.716
▁$10	-11.7161
▁crapp	-11.7168
moving	-11.7169
▁Harp	-11.7177
▁mop	-11.7224
▁distr	-11.7226
▁error	-11.7271
▁bullet	-11.7275
▁folk	-11.7279
▁Victor	-11.7292
▁buck	-11.7293
See	-11.7296
82	-11.7322
▁Burn	-11.734
ffect	-11.735
12	-11.7352
▁Secret	-11.738
Pro	-11.7384
▁1000	-11.7394
military	-11.7407
probably	-11.7416
▁ghouli	-11.7421
rgen	-11.7428
▁stumbl	-11.7447
Cow	-11.7451
▁Marti	-11.746
▁arrogan	-11.7464
ddler	-11.7468
lika	-11.7471
pathetic	-11.7473
▁Chi	-11.7475
attering	-11.7476
▁battl	-11.7477
write	-11.7478
▁smil	-11.7481
Armageddon	-11.7485
original	-11.7485
Human	-11.7485
craft	-11.7485
onald	-11.7486
Hellraiser	-11.7486
cheek	-11.7486
Lost	-11.7486
Besides	-11.7487
experienced	-11.7487
Otherwise	-11.7488
writer	-11.7488
Friday	-11.7488
wind	-11.7488
drama	-11.7489
actresses	-11.7489
People	-11.7489
familiar	-11.7489
focus	-11.7489
plus	-11.7489
Black	-11.7489
Despi	-11.7489
William	-11.7489
language	-11.7489
Everything	-11.7489
ranged	-11.7489
Scott	-11.7489
Peter	-11.7489
amount	-11.7489
important	-11.7489
David	-11.7489
okay	-11.7489
average	-11.7489
James	-11.7489
space	-11.7489
except	-11.749
child	-11.749
complete	-11.749
figure	-11.749
House	-11.749
second	-11.749
power	-11.749
Nothing	-11.749
different	-11.749
twist	-11.749
terrible	-11.749
stories	-11.749
earth	-11.749
great	-11.749
cake	-11.749
feel	-11.749
genre	-11.749
justice	-11.7491
credit	-11.7491
particularly	-11.7491
ifying	-11.7492
again	-11.7494
Director	-11.7494
count	-11.7496
Which	-11.7497
turn	-11.7499
▁accomplish	-11.75
▁crush	-11.75
▁retard	-11.7501
45	-11.7501
human	-11.7502
Eric	-11.7503
▁profession	-11.7505
15	-11.7505
personal	-11.7506
huh	-11.7507
level	-11.7509
End	-11.751
eeming	-11.7513
▁retire	-11.7515
▁engage	-11.7515
▁inspire	-11.7516
clusion	-11.7519
cool	-11.752
▁Woo	-11.752
▁quirk	-11.7524
▁slash	-11.7525
▁Russia	-11.7527
west	-11.753
hour	-11.7539
▁mirac	-11.7542
▁Nichol	-11.7544
▁fruit	-11.7544
zzie	-11.7544
▁cook	-11.7545
▁differ	-11.7545
▁Harris	-11.7546
▁practi	-11.7546
Mary	-11.7546
▁comprehen	-11.7547
▁respons	-11.7547
▁stereo	-11.7547
▁smug	-11.7547
▁revolution	-11.7547
▁plod	-11.7547
▁Jamaica	-11.7548
▁(198	-11.7548
▁Gedren	-11.7548
▁STUPID	-11.7548
▁disintegrat	-11.7548
2:37	-11.7548
Caribbean	-11.7548
DeCoteau	-11.7548
Professor	-11.7548
Shuttle	-11.7548
enobites	-11.7548
esquire	-11.7548
excusable	-11.7548
ndependence	-11.7548
squid	-11.7548
▁1991	-11.7548
▁1994	-11.7548
▁Affleck	-11.7548
▁BLOOD	-11.7548
▁Beauty	-11.7548
▁Belushi	-11.7548
▁Coburn	-11.7548
▁Dangerfield	-11.7548
▁Detective	-11.7548
▁Execut	-11.7548
▁Generation	-11.7548
▁IMDB	-11.7548
▁Kentucky	-11.7548
▁Language	-11.7548
▁Lopez	-11.7548
▁Lorelei	-11.7548
▁PLOT	-11.7548
▁Perkins	-11.7548
▁Puppet	-11.7548
▁Python	-11.7548
▁Quigley	-11.7548
▁Samurai	-11.7548
▁Scotland	-11.7548
▁Stereotypes	-11.7548
▁Studios	-11.7548
▁Tenchi	-11.7548
▁Thornton	-11.7548
▁Veronica	-11.7548
▁Vittoria	-11.7548
▁ZERO	-11.7548
▁activities	-11.7548
▁airplane	-11.7548
▁altogether	-11.7548
▁analysis	-11.7548
▁audition	-11.7548
▁barbershop	-11.7548
▁bartender	-11.7548
▁behaviour	-11.7548
▁biography	-11.7548
▁biopic	-11.7548
▁botched	-11.7548
▁campaign	-11.7548
▁centuries	-11.7548
▁circuit	-11.7548
▁circus	-11.7548
▁communicate	-11.7548
▁contradict	-11.7548
▁cyborg	-11.7548
▁debacle	-11.7548
▁default	-11.7548
▁definition	-11.7548
▁depression	-11.7548
▁desperation	-11.7548
▁discipline	-11.7548
▁distasteful	-11.7548
▁draft	-11.7548
▁ensemble	-11.7548
▁entitled	-11.7548
▁exaggerated	-11.7548
▁exaggerating	-11.7548
▁exclusive	-11.7548
▁extraordinary	-11.7548
▁gigantic	-11.7548
▁guerrilla	-11.7548
▁gymnastics	-11.7548
▁gypsy	-11.7548
▁ignorance	-11.7548
▁immense	-11.7548
▁inferior	-11.7548
▁innocence	-11.7548
▁insomnia	-11.7548
▁journalist	-11.7548
▁lethargic	-11.7548
▁luxury	-11.7548
▁meltdown	-11.7548
▁merciless	-11.7548
▁monotone	-11.7548
▁monotonous	-11.7548
▁monstrosity	-11.7548
▁monstrous	-11.7548
▁muscle	-11.7548
▁nemesis	-11.7548
▁occult	-11.7548
▁overbearing	-11.7548
▁permanent	-11.7548
▁perverse	-11.7548
▁rabbit	-11.7548
▁reappear	-11.7548
▁redundan	-11.7548
▁refreshing	-11.7548
▁retrieve	-11.7548
▁sarcastic	-11.7548
▁savage	-11.7548
▁schtick	-11.7548
▁silence	-11.7548
▁sluggish	-11.7548
▁solution	-11.7548
▁stagecoach	-11.7548
▁sublime	-11.7548
▁submarine	-11.7548
▁sufficient	-11.7548
▁supermarket	-11.7548
▁syrup	-11.7548
▁treasure	-11.7548
▁unanswered	-11.7548
▁unattractive	-11.7548
▁underdeveloped	-11.7548
▁unfaithful	-11.7548
▁unforgivable	-11.7548
▁voyeuristic	-11.7548
▁whack	-11.7548
▁wheelchair	-11.7548
▁wretched	-11.7548
Django	-11.7548
▁Anthara	-11.7548
▁Baldwin	-11.7548
▁Children	-11.7548
▁Claibourne	-11.7548
▁Dylan	-11.7548
▁Englund	-11.7548
▁FOX	-11.7548
▁Isobel	-11.7548
▁Keira	-11.7548
▁Kilmer	-11.7548
▁Knautz	-11.7548
▁Merchant	-11.7548
▁Mirren	-11.7548
▁Paxton	-11.7548
▁Radzoff	-11.7548
▁Ritchie	-11.7548
▁Saddam	-11.7548
▁Stefan	-11.7548
▁Tilney	-11.7548
▁Watson	-11.7548
▁Zealand	-11.7548
▁aggravat	-11.7548
▁buffoon	-11.7548
▁colonel	-11.7548
▁companion	-11.7548
▁electrocut	-11.7548
▁fabulous	-11.7548
▁goddess	-11.7548
▁grandmother	-11.7548
▁homophobic	-11.7548
▁implied	-11.7548
▁intensity	-11.7548
▁irreveren	-11.7548
▁neglect	-11.7548
▁neighbour	-11.7548
▁optimis	-11.7548
▁potato	-11.7548
▁redneck	-11.7548
▁rehearsal	-11.7548
▁revolt	-11.7548
▁smirk	-11.7548
▁splash	-11.7548
▁transition	-11.7548
▁vulgar	-11.7548
ç	-11.7548
▁Boorman	-11.7548
▁Crisp	-11.7548
▁Darwin	-11.7548
▁Muller	-11.7548
▁Nightmare	-11.7548
▁Squad	-11.7548
▁WHI	-11.7548
▁Wolf	-11.7548
▁Wrong	-11.7548
▁Wurtzel	-11.7548
▁essence	-11.7548
▁finance	-11.7548
▁karate	-11.7548
▁nonetheless	-11.7548
▁nurse	-11.7548
▁reserve	-11.7548
▁vocal	-11.7548
▁yourselves	-11.7548
▁Cushing	-11.7548
▁Edison	-11.7548
▁Tramp	-11.7548
▁abortion	-11.7548
▁abundan	-11.7548
▁smack	-11.7548
STORY	-11.7548
▁Castro	-11.7548
▁Sterling	-11.7548
▁hitchhik	-11.7548
▁session	-11.7548
Clearly	-11.7548
▁Spirit	-11.7548
▁Wisdom	-11.7548
▁chomp	-11.7548
▁morph	-11.7548
▁mysteries	-11.7548
▁warrant	-11.7548
▁wicked	-11.7548
▁Thanksgiving	-11.7548
▁aftermath	-11.7548
▁spoon	-11.7548
Yesterday	-11.7548
▁aimlessly	-11.7548
▁daily	-11.7548
▁sprinkl	-11.7548
▁Carrell	-11.7548
▁dentist	-11.7548
▁slob	-11.7548
▁Destiny	-11.7548
▁Drama	-11.7548
▁Emma	-11.7548
▁library	-11.7548
▁limb	-11.7548
▁restrain	-11.7548
Empire	-11.7548
▁deaf	-11.7548
▁euro	-11.7548
construction	-11.7548
zza	-11.7548
▁Peak	-11.7548
▁enrage	-11.7548
▁Agent	-11.7548
▁Douglas	-11.7548
▁Hearst	-11.7548
▁eyeballs	-11.7548
▁Susan	-11.7548
▁Dream	-11.7548
▁gush	-11.7548
▁enhanc	-11.7548
▁steady	-11.7548
▁Carell	-11.7548
▁shuttle	-11.7548
▁LOVE	-11.7548
▁honey	-11.7548
▁plodding	-11.7548
▁Betty	-11.7548
▁distant	-11.7548
▁faint	-11.7548
Robocop	-11.7548
▁exceed	-11.7548
▁futile	-11.7548
▁estate	-11.7548
▁hesitate	-11.7548
▁reign	-11.7548
▁$$	-11.7548
▁Faye	-11.7548
▁distress	-11.7548
▁domain	-11.7548
▁witchcraft	-11.7548
hastly	-11.7548
▁Left	-11.7548
▁acknowledge	-11.7548
▁believability	-11.7548
▁captor	-11.7548
▁quantit	-11.7548
▁Hawk	-11.7548
▁Pear	-11.7548
▁underscore	-11.7548
▁scoring	-11.7548
▁forehead	-11.7548
▁idol	-11.7548
▁moderate	-11.7548
▁CSI	-11.7548
▁literature	-11.7548
▁Gosling	-11.7548
▁carniv	-11.7548
▁Butchers	-11.7548
▁terminal	-11.7548
▁Hopefully	-11.7548
▁Bryan	-11.7548
▁preced	-11.7548
illusion	-11.7548
▁Cannes	-11.7548
▁defense	-11.7548
▁Gregory	-11.7548
▁Bennett	-11.7548
▁Chains	-11.7548
▁uptight	-11.7548
cclaimed	-11.7548
▁Republic	-11.7548
▁hollow	-11.7548
▁expensive	-11.7549
▁contract	-11.7549
▁justify	-11.7549
▁Southern	-11.7549
▁uglie	-11.7549
▁uncover	-11.7549
▁sulk	-11.7549
▁Bergen	-11.7549
▁flood	-11.7549
▁Carolina	-11.7549
▁Bernard	-11.7549
▁dripp	-11.7549
▁tagline	-11.7549
▁profound	-11.7549
undercover	-11.7549
▁outrage	-11.7549
▁Grier	-11.7549
▁Spain	-11.7549
▁staple	-11.7549
WTF	-11.7549
▁Civi	-11.7549
▁secure	-11.7549
fathom	-11.7549
▁shining	-11.7549
▁jean	-11.7549
▁improbable	-11.7549
▁groom	-11.755
▁2004	-11.755
▁bedroom	-11.755
▁lunch	-11.755
▁Patricia	-11.755
▁poison	-11.755
▁alarm	-11.755
▁kung	-11.755
▁Bradley	-11.755
▁yellow	-11.755
▁1933	-11.755
▁hoot	-11.755
▁Popp	-11.755
▁lyric	-11.755
Snake	-11.755
▁discount	-11.755
▁dough	-11.755
▁Gamera	-11.755
▁pressure	-11.755
▁authorities	-11.755
▁underwear	-11.755
▁paranormal	-11.755
venue	-11.755
▁Valley	-11.755
▁roof	-11.755
ivated	-11.755
▁staff	-11.755
▁Lauren	-11.755
▁kidding	-11.7551
▁strut	-11.7551
▁Moreover	-11.7551
▁angst	-11.7551
▁Midian	-11.7551
▁cavemen	-11.7551
▁canvas	-11.7551
▁cringing	-11.7551
▁Baker	-11.7551
▁"1"	-11.7551
▁erupt	-11.7551
▁Laden	-11.7551
Harlem	-11.7551
▁panties	-11.7551
▁echo	-11.7551
▁HOW	-11.7551
▁Kingdom	-11.7551
ULL	-11.7551
▁slide	-11.7552
▁jury	-11.7552
▁melodramatic	-11.7552
▁Outside	-11.7552
▁Dilly	-11.7552
▁slack	-11.7552
valent	-11.7552
▁confrontation	-11.7552
▁mankind	-11.7553
▁Judge	-11.7553
Break	-11.7553
▁Jew	-11.7553
opping	-11.7553
▁shotgun	-11.7553
▁unimaginative	-11.7553
▁breathtaking	-11.7553
bury	-11.7554
▁skimp	-11.7554
▁Swain	-11.7554
▁raving	-11.7554
▁Giant	-11.7554
▁Shiban	-11.7554
▁masterful	-11.7554
▁LOT	-11.7554
▁barney	-11.7554
▁imagery	-11.7555
▁bombard	-11.7555
▁drumm	-11.7555
▁symbolic	-11.7555
▁poop	-11.7556
▁Foreigner	-11.7556
▁nit	-11.7556
▁SCI	-11.7556
▁Frankie	-11.7556
▁mentality	-11.7556
oggi	-11.7556
▁lightning	-11.7557
▁consistent	-11.7557
▁Milian	-11.7557
▁Loren	-11.7557
▁stash	-11.7557
▁adaption	-11.7558
▁predat	-11.7558
▁Sunny	-11.7558
▁letdown	-11.7558
▁EVERY	-11.7558
▁Michel	-11.7559
Amato	-11.7559
▁Udo	-11.7559
▁Burton	-11.7559
▁Terror	-11.7559
characterisation	-11.7559
▁Game	-11.7559
▁surge	-11.7559
▁spout	-11.756
Class	-11.756
▁secretary	-11.756
▁possesses	-11.756
ontaine	-11.7561
▁Doom	-11.7561
▁Lola	-11.7561
river	-11.7561
▁cub	-11.7561
STER	-11.7561
▁scout	-11.7562
▁duck	-11.7562
oison	-11.7562
▁STA	-11.7562
▁Leno	-11.7562
▁Nata	-11.7562
▁contribution	-11.7562
▁morality	-11.7563
▁Hmm	-11.7564
▁HOL	-11.7564
▁passage	-11.7564
▁AWAY	-11.7565
▁consideration	-11.7565
▁diverse	-11.7565
▁Fight	-11.7565
▁progresses	-11.7566
▁madness	-11.7568
door	-11.7568
▁golden	-11.7568
▁HOR	-11.7568
TEN	-11.7568
▁comeback	-11.7569
▁Beck	-11.7569
▁Inki	-11.7569
▁Book	-11.7569
▁Maria	-11.757
▁Christianity	-11.757
▁Raci	-11.757
fication	-11.7572
Underworld	-11.7572
ilian	-11.7572
▁divorced	-11.7573
▁eliminated	-11.7573
▁tenant	-11.7574
▁Apes	-11.7575
gymnast	-11.7575
▁sickness	-11.7575
▁shall	-11.7576
▁Wick	-11.7576
▁Manson	-11.7577
▁Cave	-11.7578
▁neo	-11.7578
ogether	-11.7579
▁overcome	-11.758
▁cage	-11.758
▁engaged	-11.7581
▁retired	-11.7581
▁stale	-11.7583
▁LOW	-11.7583
▁Vietnames	-11.7585
▁selfish	-11.7586
tangle	-11.7586
▁kit	-11.7587
ACE	-11.7587
▁punches	-11.7588
▁perfection	-11.7589
▁headline	-11.759
▁perpetual	-11.7591
▁hellish	-11.7591
▁feat	-11.7592
▁Want	-11.7592
ancy	-11.7595
▁imitate	-11.7595
destructi	-11.7595
▁Worse	-11.7598
▁peak	-11.7599
been	-11.7599
▁urin	-11.76
▁Twin	-11.7602
▁universal	-11.7602
▁capitalize	-11.7603
▁overrated	-11.7604
▁Sue	-11.7604
▁Julian	-11.7604
▁Forty	-11.7606
wear	-11.7612
▁Him	-11.7613
rleans	-11.7618
▁kin	-11.7621
▁Cassi	-11.7624
▁touches	-11.7625
engi	-11.7625
▁Song	-11.7628
mpered	-11.7631
▁cus	-11.7631
▁Kara	-11.7633
▁Five	-11.7634
Comments	-11.7634
▁dear	-11.7634
She	-11.7635
▁CG	-11.7636
▁menu	-11.7639
guise	-11.765
▁Perl	-11.765
▁square	-11.7652
▁Middle	-11.7656
77	-11.7657
▁Russ	-11.7665
zel	-11.767
▁bowl	-11.7678
▁rage	-11.7682
▁shave	-11.7687
▁Josh	-11.7691
▁Cage	-11.7696
awyer	-11.7696
▁Rest	-11.7698
endel	-11.77
▁flipp	-11.7709
soft	-11.7715
plight	-11.773
▁sympathize	-11.7732
▁Barb	-11.7744
Patti	-11.775
▁toleran	-11.7757
identifi	-11.777
▁shak	-11.7774
▁demean	-11.7778
chin	-11.7798
Free	-11.7805
▁tendenc	-11.7805
▁vet	-11.7888
true	-11.7911
▁arriv	-11.7931
▁Thor	-11.7942
90%	-11.7952
1965	-11.7963
uza	-11.7973
Congo	-11.7973
▁shameful	-11.7982
▁mumbl	-11.8011
▁tub	-11.8016
matter	-11.8017
Lowe	-11.8028
Etern	-11.8062
Ewan	-11.8063
ervice	-11.8068
road	-11.8074
media	-11.808
▁Romania	-11.81
▁communi	-11.8102
▁Friend	-11.8126
▁slipp	-11.8137
▁Ball	-11.8152
liance	-11.8158
freeze	-11.8204
hur	-11.8241
arious	-11.8259
▁fogg	-11.8293
▁comfort	-11.8311
▁Trip	-11.832
▁Sonn	-11.8333
effe	-11.8356
▁Luck	-11.8361
logs	-11.8381
ledge	-11.8393
84	-11.842
▁sunk	-11.8422
ripp	-11.8436
▁realiz	-11.8462
▁Hug	-11.849
oggy	-11.8499
whiz	-11.8514
▁explor	-11.8557
Anim	-11.8563
▁$7	-11.8581
vor	-11.8655
EST	-11.868
astic	-11.8693
HAT	-11.87
active	-11.8715
OH	-11.8732
▁Fast	-11.8734
▁fantastical	-11.875
pole	-11.8756
pressed	-11.8762
▁Petr	-11.8774
▁rescu	-11.8778
Luci	-11.8811
AH	-11.8821
enetic	-11.8823
literal	-11.8874
▁presum	-11.8882
Lori	-11.8885
▁unimpress	-11.8973
▁requir	-11.9039
quarters	-11.9059
THEN	-11.9082
SOME	-11.9083
placement	-11.9101
plicate	-11.9171
high	-11.9176
urious	-11.9184
Cheers	-11.9193
▁enthusias	-11.9199
▁85	-11.9357
communis	-11.9376
▁concentrat	-11.9411
mple	-11.9438
guil	-11.944
▁recreat	-11.9494
EAN	-11.9496
▁scum	-11.9498
▁untru	-11.9581
deserving	-11.9619
truck	-11.9629
solved	-11.9666
windle	-11.9675
▁Serv	-11.9679
▁brav	-11.9697
meaning	-11.9702
tract	-11.9711
nails	-11.9714
▁prim	-11.9715
▁flab	-11.9728
▁195	-11.9729
▁Changi	-11.9733
47	-11.9744
erald	-11.9746
▁Brother	-11.9766
cluded	-11.9769
▁survivor	-11.9773
▁introduc	-11.9781
▁500	-11.982
nybody	-11.9836
▁entr	-11.9853
▁surviv	-11.9874
prise	-11.9891
▁decid	-11.9904
occup	-11.9904
▁Swa	-11.991
▁LU	-11.9913
latter	-11.9935
Prom	-11.9967
▁sigh	-11.9977
Direct	-11.9984
numbing	-11.9985
satisfied	-11.9986
▁compell	-11.9986
▁accord	-11.9986
Granted	-11.9986
worship	-11.9986
Battle	-11.9987
Honestly	-11.9987
Ghost	-11.9987
Lots	-11.9987
shirt	-11.9988
Laura	-11.9988
Family	-11.9988
public	-11.9988
kind	-11.9988
dubbed	-11.9988
normal	-11.9988
Read	-11.9988
comedic	-11.9988
Julia	-11.9988
social	-11.9989
Okay	-11.9989
freak	-11.9989
▁Murd	-11.9989
machine	-11.9989
Bruce	-11.9989
Dracula	-11.9989
mystery	-11.9989
professional	-11.9989
bottom	-11.9989
nonsense	-11.9989
climax	-11.9989
Charles	-11.9989
surprise	-11.9989
Perhaps	-11.9989
igator	-11.9989
Like	-11.9989
modern	-11.9989
villain	-11.9989
build	-11.9989
suspense	-11.9989
murder	-11.9989
basically	-11.9989
please	-11.9989
English	-11.999
expect	-11.999
Angel	-11.999
DVD	-11.999
dream	-11.999
Baby	-11.999
decent	-11.999
shooting	-11.999
candy	-11.9992
passion	-11.9992
aware	-11.9992
Good	-11.9993
jump	-11.9993
Save	-11.9994
Lou	-11.9994
Paul	-11.9995
joke	-11.9995
forward	-11.9996
dark	-11.9997
Young	-11.9997
often	-12
apart	-12
drive	-12.0001
SPOILERS	-12.0001
USE	-12.0003
Myster	-12.0003
week	-12.0003
▁Iraq	-12.0003
reality	-12.0003
could	-12.0004
Over	-12.0004
based	-12.0005
lift	-12.0006
▁distinct	-12.0006
Lance	-12.0006
Wow	-12.0007
▁snip	-12.0009
sympath	-12.001
▁happi	-12.0011
▁Further	-12.0011
▁thorough	-12.0012
▁immediate	-12.0012
▁intend	-12.0014
▁eliminate	-12.0014
▁advertise	-12.0015
▁resolve	-12.0015
▁divorce	-12.0015
▁execute	-12.0017
▁muddle	-12.0017
Back	-12.0017
flow	-12.0017
▁gee	-12.0023
▁summari	-12.0023
▁Vinc	-12.0024
▁portra	-12.0024
▁divers	-12.0025
▁compose	-12.003
▁thru	-12.0041
▁responsib	-12.0042
▁impossib	-12.0042
NNE	-12.0042
▁posse	-12.0043
▁Europe	-12.0044
▁Walke	-12.0044
▁electric	-12.0045
exican	-12.0045
▁benef	-12.0045
▁pupp	-12.0046
▁Clee	-12.0046
▁chuck	-12.0046
▁excess	-12.0046
ictoria	-12.0046
▁empha	-12.0046
elevision	-12.0046
▁document	-12.0046
emorable	-12.0047
▁install	-12.0047
▁[19	-12.0047
▁Kurt	-12.0047
▁intellect	-12.0047
ashmi	-12.0047
LUM	-12.0048
aaaaa	-12.0048
uuuu	-12.0048
▁Essential	-12.0048
▁clutch	-12.0048
▁masturbat	-12.0048
Florida	-12.0048
POSSIBLE	-12.0048
consequent	-12.0048
exaggeration	-12.0048
spaghetti	-12.0048
ó	-12.0048
ö	-12.0048
▁BOMB	-12.0048
▁FILM	-12.0048
▁Liberal	-12.0048
▁inadvert	-12.0048
▁repetitio	-12.0048
▁rhyme	-12.0048
▁surpass	-12.0048
▁tyrant	-12.0048
Ausentes	-12.0048
Bodrov	-12.0048
Enjoy	-12.0048
Enterprise	-12.0048
Francis	-12.0048
Impossible	-12.0048
Magnificent	-12.0048
Troilus	-12.0048
Ultimately	-12.0048
biologist	-12.0048
burgh	-12.0048
emocracy	-12.0048
jumbo	-12.0048
lucination	-12.0048
mouthed	-12.0048
quisite	-12.0048
zzz	-12.0048
ñ	-12.0048
▁0/10	-12.0048
▁1974	-12.0048
▁1979	-12.0048
▁1986	-12.0048
▁1988	-12.0048
▁Achilles	-12.0048
▁Additiona	-12.0048
▁Amazon	-12.0048
▁Argentine	-12.0048
▁August	-12.0048
▁Aykroyd	-12.0048
▁Belgian	-12.0048
▁Biehn	-12.0048
▁Brotherhood	-12.0048
▁Buchanan	-12.0048
▁CALIGUL	-12.0048
▁CARNOSAUR	-12.0048
▁CLEAR	-12.0048
▁Caddyshack	-12.0048
▁Cinderella	-12.0048
▁Covenant	-12.0048
▁Creepers	-12.0048
▁Cruelty	-12.0048
▁Cruise	-12.0048
▁Cruz	-12.0048
▁Demeter	-12.0048
▁Dialogue	-12.0048
▁Dublin	-12.0048
▁Eduardo	-12.0048
▁Elliot	-12.0048
▁Entertainment	-12.0048
▁Escape	-12.0048
▁Estevez	-12.0048
▁GRAFFITTI	-12.0048
▁GREAT	-12.0048
▁Godzilla	-12.0048
▁Gorcey	-12.0048
▁Gossett	-12.0048
▁Guccione	-12.0048
▁Gypsy	-12.0048
▁Hardbodies	-12.0048
▁Hundred	-12.0048
▁LILI	-12.0048
▁Lahti	-12.0048
▁Lombard	-12.0048
▁MARIANNE	-12.0048
▁MASSACRE	-12.0048
▁McQueen	-12.0048
▁Messengers	-12.0048
▁Mountain	-12.0048
▁Mozart	-12.0048
▁Nicola	-12.0048
▁Ogrodnik	-12.0048
▁Pacific	-12.0048
▁Pacino	-12.0048
▁Pakistan	-12.0048
▁Peace	-12.0048
▁Pennsylvania	-12.0048
▁Phoenix	-12.0048
▁Piranha	-12.0048
▁Predictable	-12.0048
▁Problem	-12.0048
▁Psycho	-12.0048
▁Rejects	-12.0048
▁Revelation	-12.0048
▁Rhett	-12.0048
▁Ridiculous	-12.0048
▁Rohmer	-12.0048
▁Rommel	-12.0048
▁Sixties	-12.0048
▁Snipes	-12.0048
▁Suddenly	-12.0048
▁Summer	-12.0048
▁THREE	-12.0048
▁TIMES	-12.0048
▁Temujin	-12.0048
▁UFO	-12.0048
▁Underground	-12.0048
▁Usually	-12.0048
▁WESTERN	-12.0048
▁WRONG	-12.0048
▁Wayans	-12.0048
▁Zucco	-12.0048
▁abilities	-12.0048
▁accompany	-12.0048
▁accuracy	-12.0048
▁adolescen	-12.0048
▁ammunition	-12.0048
▁amusement	-12.0048
▁architect	-12.0048
▁aristocrat	-12.0048
▁assistance	-12.0048
▁atrocity	-12.0048
▁audacious	-12.0048
▁babysitter	-12.0048
▁beggars	-12.0048
▁bewildered	-12.0048
▁boulders	-12.0048
▁bungling	-12.0048
▁caution	-12.0048
▁celebrate	-12.0048
▁challenging	-12.0048
▁chronological	-12.0048
▁conceivable	-12.0048
▁concrete	-12.0048
▁contempt	-12.0048
▁creepiness	-12.0048
▁daft	-12.0048
▁decapitate	-12.0048
▁decapitation	-12.0048
▁deplorable	-12.0048
▁despair	-12.0048
▁deteriorat	-12.0048
▁dimwit	-12.0048
▁dishonest	-12.0048
▁distribution	-12.0048
▁eccentric	-12.0048
▁emergency	-12.0048
▁empathize	-12.0048
▁equivalent	-12.0048
▁evacuate	-12.0048
▁extravaganza	-12.0048
▁fascinate	-12.0048
▁fascination	-12.0048
▁flimsy	-12.0048
▁fluid	-12.0048
▁fundamental	-12.0048
▁graduate	-12.0048
▁haphazard	-12.0048
▁hilarity	-12.0048
▁homicide	-12.0048
▁horrified	-12.0048
▁housekeeper	-12.0048
▁hybrid	-12.0048
▁implants	-12.0048
▁impregnate	-12.0048
▁inaccuracy	-12.0048
▁industrial	-12.0048
▁infantile	-12.0048
▁institution	-12.0048
▁integrity	-12.0048
▁jackass	-12.0048
▁laptop	-12.0048
▁lavish	-12.0048
▁loathsome	-12.0048
▁lunatic	-12.0048
▁marginal	-12.0048
▁mausoleum	-12.0048
▁monitor	-12.0048
▁narrates	-12.0048
▁narrow	-12.0048
▁nervous	-12.0048
▁nutshell	-12.0048
▁obscurity	-12.0048
▁ominous	-12.0048
▁omitted	-12.0048
▁organisation	-12.0048
▁peasant	-12.0048
▁photocopy	-12.0048
▁ponderous	-12.0048
▁preposterous	-12.0048
▁prolific	-12.0048
▁psychology	-12.0048
▁purport	-12.0048
▁rambling	-12.0048
▁relevance	-12.0048
▁repulsive	-12.0048
▁resource	-12.0048
▁sandwich	-12.0048
▁schedule	-12.0048
▁skateboard	-12.0048
▁sloppy	-12.0048
▁smarmy	-12.0048
▁stooge	-12.0048
▁supplie	-12.0048
▁surrender	-12.0048
▁synthesi	-12.0048
▁syphilis	-12.0048
▁temporarily	-12.0048
▁tentacle	-12.0048
▁tribulation	-12.0048
▁unconsciousness	-12.0048
▁unintelligible	-12.0048
▁unsettling	-12.0048
▁virtue	-12.0048
▁vixen	-12.0048
Charmed	-12.0048
GAME	-12.0048
▁'70	-12.0048
▁BOOM	-12.0048
▁Caribe	-12.0048
▁Columbus	-12.0048
▁Commun	-12.0048
▁Company	-12.0048
▁Cortese	-12.0048
▁Crichton	-12.0048
▁Crisis	-12.0048
▁Donlevy	-12.0048
▁Doohan	-12.0048
▁Dunaway	-12.0048
▁Dvorak	-12.0048
▁Follow	-12.0048
▁Francisco	-12.0048
▁Giphart	-12.0048
▁Griswold	-12.0048
▁Herzog	-12.0048
▁Hilary	-12.0048
▁Lampoon	-12.0048
▁Louisiana	-12.0048
▁McDowell	-12.0048
▁Nessie	-12.0048
▁POV	-12.0048
▁Polanski	-12.0048
▁Rourke	-12.0048
▁Sinatra	-12.0048
▁Spelling	-12.0048
▁Spencer	-12.0048
▁Thumb	-12.0048
▁Voight	-12.0048
▁WOW	-12.0048
▁WRIT	-12.0048
▁approv	-12.0048
▁bimbo	-12.0048
▁bullshit	-12.0048
▁champion	-12.0048
▁competitor	-12.0048
▁constructed	-12.0048
▁darling	-12.0048
▁documentaries	-12.0048
▁graffit	-12.0048
▁hypocri	-12.0048
▁inadequate	-12.0048
▁insurance	-12.0048
▁mannequin	-12.0048
▁murky	-12.0048
▁pagan	-12.0048
▁penalty	-12.0048
▁polite	-12.0048
▁pupil	-12.0048
▁shovel	-12.0048
▁wreak	-12.0048
articulate	-12.0048
▁Britney	-12.0048
▁Byrne	-12.0048
▁CERN	-12.0048
▁CHAR	-12.0048
▁Calvin	-12.0048
▁Camera	-12.0048
▁Claud	-12.0048
▁Forlani	-12.0048
▁Gilbey	-12.0048
▁Hatfield	-12.0048
▁Keith	-12.0048
▁Nadia	-12.0048
▁Notebook	-12.0048
▁Ugh	-12.0048
▁astounding	-12.0048
▁cigarettes	-12.0048
▁conceit	-12.0048
▁download	-12.0048
▁envy	-12.0048
▁henchmen	-12.0048
▁interrogat	-12.0048
▁leather	-12.0048
▁lumpy	-12.0048
▁masquerad	-12.0048
▁millionaire	-12.0048
▁oppressi	-12.0048
▁pattern	-12.0048
▁pioneer	-12.0048
▁poetry	-12.0048
▁preserve	-12.0048
▁pulse	-12.0048
▁radical	-12.0048
▁seductive	-12.0048
▁sleepwalk	-12.0048
▁squint	-12.0048
▁throne	-12.0048
▁unleash	-12.0048
EEP	-12.0048
Prisoner	-12.0048
▁Rachel	-12.0048
▁SEX	-12.0048
▁critter	-12.0048
▁implement	-12.0048
▁thumb	-12.0048
▁warehouse	-12.0048
▁warfare	-12.0048
▁whale	-12.0048
Frankenstein	-12.0048
▁Aussie	-12.0048
▁Rodriguez	-12.0048
▁Toulon	-12.0048
▁dross	-12.0048
▁efficien	-12.0048
▁raptors	-12.0048
▁refund	-12.0048
VOI	-12.0048
Violence	-12.0048
▁Walsh	-12.0048
▁dentures	-12.0048
▁orchestra	-12.0048
▁stabbed	-12.0048
▁wisdom	-12.0048
90210	-12.0048
▁Monday	-12.0048
▁Waye	-12.0048
▁cheque	-12.0048
▁weaknesses	-12.0048
Genius	-12.0048
▁captions	-12.0048
▁replies	-12.0048
-80	-12.0048
coherence	-12.0048
▁Conrad	-12.0048
▁Impact	-12.0048
▁kitsch	-12.0048
▁Hauer	-12.0048
▁Hurst	-12.0048
▁Passion	-12.0048
▁applie	-12.0048
▁deleted	-12.0048
▁justifiabl	-12.0048
▁motif	-12.0048
▁theoretical	-12.0048
▁bonus	-12.0048
▁parrot	-12.0048
assandra	-12.0048
▁genital	-12.0048
▁recur	-12.0048
▁sincerity	-12.0048
▁Cross	-12.0048
▁Renee	-12.0048
▁SEE	-12.0048
▁Shepard	-12.0048
▁flush	-12.0048
▁midget	-12.0048
▁Castle	-12.0048
▁Potter	-12.0048
▁appeti	-12.0048
▁manhood	-12.0048
▁radar	-12.0048
▁unstable	-12.0048
▁Tweed	-12.0048
▁Valentine	-12.0048
▁Kashmir	-12.0048
▁whisper	-12.0048
▁Katie	-12.0048
▁Quinn	-12.0048
▁banter	-12.0048
HEAD	-12.0048
Screen	-12.0048
▁instructor	-12.0048
▁satiriz	-12.0048
thodo	-12.0048
▁eleven	-12.0048
▁Vidal	-12.0048
▁Besser	-12.0048
▁relieved	-12.0048
Shutter	-12.0048
▁Hawaii	-12.0048
▁Ugly	-12.0048
▁EVERYTHING	-12.0048
▁knee	-12.0048
▁Center	-12.0048
▁Reiner	-12.0048
▁capacit	-12.0048
▁foremost	-12.0048
▁frightened	-12.0048
NAKE	-12.0048
▁apologize	-12.0048
Compton	-12.0048
▁immor	-12.0048
▁Painful	-12.0048
▁civilization	-12.0048
▁newcomer	-12.0048
fluent	-12.0048
▁1-3	-12.0048
▁Xmas	-12.0048
▁bloodsuck	-12.0048
▁Sense	-12.0048
massacre	-12.0048
Savage	-12.0048
▁Kingsley	-12.0048
▁cotton	-12.0048
QUI	-12.0048
rgant	-12.0048
▁Point	-12.0048
▁Spark	-12.0048
▁Therefore	-12.0048
▁crucifixion	-12.0048
▁gull	-12.0048
▁glee	-12.0048
▁Smithee	-12.0048
▁Glass	-12.0048
▁advers	-12.0048
▁orient	-12.0048
▁southern	-12.0048
▁prompt	-12.0048
▁Shining	-12.0048
▁animators	-12.0048
▁catchphrase	-12.0048
▁Ivory	-12.0048
▁amoral	-12.0048
▁entity	-12.0048
galaxy	-12.0048
▁Division	-12.0048
▁confine	-12.0048
▁dismemberment	-12.0048
▁Command	-12.0048
▁Eastern	-12.0048
▁gear	-12.0048
▁Sica	-12.0048
▁dopey	-12.0048
▁steel	-12.0048
▁Commission	-12.0048
▁Tension	-12.0048
▁miniature	-12.0048
▁peons	-12.0048
handedly	-12.0048
▁savvy	-12.0048
holic	-12.0048
▁expedit	-12.0048
▁slurs	-12.0048
▁scalp	-12.0048
▁Luckily	-12.0048
▁vacu	-12.0048
▁gripping	-12.0048
▁frost	-12.0048
▁Eastwood	-12.0048
▁Marcia	-12.0048
▁Midler	-12.0048
▁Airport	-12.0048
▁Samuel	-12.0048
▁Fritz	-12.0049
▁arrow	-12.0049
▁rogue	-12.0049
▁Turkey	-12.0049
▁wolf	-12.0049
▁Dickens	-12.0049
Oddly	-12.0049
Files	-12.0049
carriage	-12.0049
▁Cliff	-12.0049
▁boast	-12.0049
▁mimic	-12.0049
▁amused	-12.0049
▁east	-12.0049
Ordinar	-12.0049
Euro	-12.0049
▁Exodus	-12.0049
▁rode	-12.0049
▁android	-12.0049
▁lynch	-12.0049
▁strain	-12.0049
▁emphasize	-12.0049
▁collage	-12.0049
▁Stick	-12.0049
▁Meyer	-12.0049
▁Florence	-12.0049
▁unseen	-12.0049
▁bulk	-12.0049
▁ambition	-12.0049
▁tourist	-12.0049
▁Giov	-12.0049
Daffy	-12.0049
▁Hamill	-12.0049
▁GOOD	-12.0049
▁composition	-12.0049
▁distortion	-12.0049
▁Stacy	-12.0049
▁YES	-12.0049
▁revolutionary	-12.0049
▁strung	-12.0049
▁divine	-12.0049
▁Mask	-12.0049
▁electrician	-12.0049
▁refine	-12.0049
arricade	-12.0049
▁Tower	-12.005
▁sunset	-12.005
▁Wonderful	-12.005
▁Stella	-12.005
▁Bird	-12.005
▁admirably	-12.005
scope	-12.005
▁$6	-12.005
▁Arrow	-12.005
Regard	-12.005
▁proclaim	-12.005
▁assert	-12.005
▁Piper	-12.005
▁pump	-12.005
▁chess	-12.005
▁exploration	-12.005
streak	-12.005
▁knight	-12.005
▁detract	-12.005
pocalypse	-12.005
▁superhero	-12.005
▁Awards	-12.005
▁gender	-12.005
▁$8	-12.005
▁Quickie	-12.005
▁glory	-12.005
▁Lifetime	-12.005
bject	-12.005
▁misplace	-12.005
▁ethic	-12.005
▁sickened	-12.005
▁techno	-12.005
▁deranged	-12.005
▁Morland	-12.005
▁victoria	-12.0051
▁expire	-12.0051
unshine	-12.0051
saloon	-12.0051
▁blunt	-12.0051
▁salad	-12.0051
▁mentor	-12.0051
▁extract	-12.0051
ELO	-12.0051
▁breed	-12.0051
▁utilit	-12.0051
▁Fanny	-12.0051
▁nuance	-12.0051
▁sugar	-12.0051
▁perky	-12.0051
▁Spring	-12.0051
▁rebellio	-12.0051
▁Nelly	-12.0051
▁distinction	-12.0052
▁Fairies	-12.0052
▁parole	-12.0052
▁Jordanian	-12.0052
▁Diaz	-12.0052
▁:-)	-12.0052
▁cough	-12.0052
▁handgun	-12.0052
▁Gallo	-12.0052
▁sentimentality	-12.0052
gnes	-12.0052
▁ditch	-12.0052
▁impart	-12.0052
▁haircut	-12.0052
▁predictably	-12.0052
▁Melani	-12.0052
▁intact	-12.0053
▁chock	-12.0053
▁twitch	-12.0053
▁differentiate	-12.0053
▁conform	-12.0053
▁Chop	-12.0053
▁Huntley	-12.0053
▁fox	-12.0053
▁Heston	-12.0053
▁Stack	-12.0053
▁Quick	-12.0053
▁Martian	-12.0053
ensible	-12.0053
▁continuous	-12.0053
▁TERRIBL	-12.0053
▁Wiley	-12.0053
▁1.5	-12.0054
▁reptiles	-12.0054
▁Tough	-12.0054
▁Funny	-12.0054
▁anticipation	-12.0054
matically	-12.0054
Zoe	-12.0054
▁Youtube	-12.0054
▁stunk	-12.0054
▁Maxim	-12.0054
futur	-12.0054
▁Perry	-12.0054
Améli	-12.0054
enchant	-12.0055
▁comparable	-12.0055
▁unfl	-12.0055
▁Vienn	-12.0055
▁Patty	-12.0055
▁Zeus	-12.0055
▁Haack	-12.0055
▁Lacy	-12.0055
▁sunny	-12.0055
AAH	-12.0055
▁improvement	-12.0055
▁Lucian	-12.0055
▁Flat	-12.0055
▁Rhon	-12.0056
▁Harley	-12.0056
▁bloke	-12.0056
▁cease	-12.0056
▁HAL	-12.0056
▁Moreland	-12.0056
▁export	-12.0056
▁foist	-12.0056
▁expand	-12.0056
▁crop	-12.0056
▁exposit	-12.0056
scrub	-12.0056
hima	-12.0057
▁roam	-12.0057
▁arrangement	-12.0057
▁safety	-12.0057
▁Marco	-12.0057
morous	-12.0057
▁pursuit	-12.0057
▁restroom	-12.0057
▁Torch	-12.0057
▁artwork	-12.0057
▁rewritten	-12.0057
▁excel	-12.0058
▁Robinson	-12.0058
▁Depp	-12.0058
▁Dirt	-12.0058
▁Danson	-12.0058
▁Jeanne	-12.0058
▁exec	-12.0059
▁2003	-12.0059
▁Rox	-12.0059
▁Board	-12.0059
▁Somehow	-12.0059
▁highschool	-12.0059
▁Cash	-12.006
▁Moreno	-12.006
▁Nurs	-12.006
▁Thus	-12.0061
▁Hendr	-12.0061
▁pink	-12.0061
▁vary	-12.0061
▁Money	-12.0061
▁Balk	-12.0061
▁Jonas	-12.0062
▁Serge	-12.0062
▁unclear	-12.0062
▁coward	-12.0062
▁Kress	-12.0062
▁speechless	-12.0063
▁COP	-12.0063
▁beef	-12.0063
▁saddle	-12.0064
herent	-12.0064
▁cried	-12.0064
▁scarier	-12.0064
▁noticing	-12.0065
▁clock	-12.0065
mran	-12.0066
fusion	-12.0066
▁fright	-12.0066
Valentin	-12.0066
▁fence	-12.0066
▁transformation	-12.0067
▁Shir	-12.0067
▁protection	-12.0068
▁duh	-12.0069
▁composer	-12.0069
▁abduction	-12.007
bbie	-12.007
▁Domin	-12.0071
▁claw	-12.0071
hief	-12.0071
▁Huh	-12.0071
▁300	-12.0072
▁discerni	-12.0072
▁lash	-12.0072
warf	-12.0072
▁limo	-12.0073
▁max	-12.0074
▁nest	-12.0075
ggers	-12.0078
Caba	-12.0078
▁endorse	-12.0078
astard	-12.0078
▁eeri	-12.0078
▁Keene	-12.0079
▁yo	-12.0081
▁disclos	-12.0083
▁Hack	-12.0084
▁undef	-12.0088
▁agreement	-12.0098
▁hub	-12.0099
cular	-12.0099
eez	-12.0103
esert	-12.0113
▁cite	-12.0114
▁matt	-12.0116
▁Supp	-12.0118
▁Horri	-12.0122
worn	-12.0125
conventional	-12.0128
▁dishe	-12.0128
istrict	-12.0137
▁leak	-12.0139
anean	-12.0155
▁snipp	-12.0159
▁acco	-12.016
▁peaceful	-12.0163
▁dodg	-12.0175
▁Floo	-12.0176
ecently	-12.0184
▁capabilit	-12.0201
▁greas	-12.0203
▁ghoul	-12.0212
▁Milk	-12.0213
uthenticity	-12.0237
Lesl	-12.0254
Loose	-12.026
▁elde	-12.0266
1931	-12.0272
▁Jad	-12.028
▁scatter	-12.0292
▁wipe	-12.0325
ATED	-12.0334
▁degenerate	-12.0347
presidential	-12.0347
▁code	-12.035
NOW	-12.0393
▁remov	-12.0414
▁Erik	-12.0423
Luc	-12.0481
paced	-12.0486
2002	-12.0491
▁supervis	-12.0538
▁blurr	-12.0538
▁cab	-12.0541
▁Nic	-12.0563
▁clash	-12.06
Tiny	-12.0608
lbert	-12.0609
▁hypnoti	-12.0646
bike	-12.0663
actica	-12.0663
▁juic	-12.0668
igger	-12.0747
▁unsur	-12.0774
gious	-12.0791
Alexand	-12.0824
Carmen	-12.0897
Parent	-12.0977
Mika	-12.101
▁glu	-12.101
▁Medi	-12.1016
Alright	-12.109
inding	-12.1103
UNG	-12.1107
▁plumb	-12.1156
▁brut	-12.1206
hanging	-12.1209
slav	-12.1333
artistry	-12.1349
▁turb	-12.1391
Rex	-12.1407
ooja	-12.1411
elevator	-12.1412
▁digg	-12.1465
▁racis	-12.1577
Casting	-12.1577
OOD	-12.1581
▁Combin	-12.1587
ODO	-12.1598
fair	-12.1692
ADE	-12.1743
sancti	-12.1752
TIC	-12.1797
apolog	-12.187
▁resembl	-12.1914
Carly	-12.2067
▁Abi	-12.2159
▁Darb	-12.2233
▁Kari	-12.2252
▁reci	-12.2448
umpkin	-12.251
▁prais	-12.2625
Pod	-12.267
vision	-12.2676
boiler	-12.2723
LIN	-12.2744
▁rou	-12.275
▁Sli	-12.2776
dudes	-12.278
▁Lak	-12.2837
Frankly	-12.2966
▁tast	-12.3003
RID	-12.3043
uzzy	-12.3044
ounty	-12.3057
rainy	-12.3137
intentionally	-12.3176
▁pacif	-12.3177
dvice	-12.3177
appropriate	-12.321
ficient	-12.3221
▁trib	-12.326
▁homo	-12.3263
eaky	-12.3288
▁choos	-12.3292
▁imitat	-12.3295
▁sadde	-12.3297
worth	-12.33
=	-12.3312
related	-12.3317
Twi	-12.3318
EVER	-12.3319
phrase	-12.3319
Hollow	-12.3319
dropping	-12.3319
present	-12.3319
Alice	-12.3319
Austin	-12.332
Code	-12.332
specific	-12.332
Club	-12.332
Road	-12.332
scarecrow	-12.332
split	-12.332
spoiler	-12.332
Nazi	-12.332
Dear	-12.332
Death	-12.332
Wait	-12.3321
Almost	-12.3321
patient	-12.3321
laughter	-12.3321
Chuck	-12.3321
asochist	-12.3321
wannabe	-12.3321
Lloyd	-12.3321
exploitation	-12.3321
spoke	-12.3321
Awful	-12.3322
Plot	-12.3322
Story	-12.3322
intellectual	-12.3322
Camp	-12.3322
Karen	-12.3322
Halloween	-12.3322
genius	-12.3322
Poor	-12.3322
Charlie	-12.3322
design	-12.3322
length	-12.3322
Though	-12.3322
street	-12.3322
Disney	-12.3322
fantasy	-12.3322
frame	-12.3322
animal	-12.3322
pretentious	-12.3322
masterpiece	-12.3323
Film	-12.3323
template	-12.3323
invent	-12.3323
hilarious	-12.3323
perfect	-12.3323
Italian	-12.3323
Ryan	-12.3323
husband	-12.3323
bomb	-12.3323
screenwriter	-12.3323
female	-12.3323
picture	-12.3323
direction	-12.3323
quality	-12.3323
Steven	-12.3323
writing	-12.3323
women	-12.3323
daughter	-12.3323
release	-12.3323
third	-12.3323
stupid	-12.3323
support	-12.3323
woman	-12.3323
music	-12.3324
first	-12.3324
better	-12.3324
safe	-12.3325
felt	-12.3325
three	-12.3326
▁animat	-12.3333
▁arrest	-12.3334
crappy	-12.3334
Christin	-12.3336
flicted	-12.3343
▁essential	-12.3345
variabl	-12.3348
▁applau	-12.3349
▁Korea	-12.3356
Possibl	-12.3356
▁possibilit	-12.3363
blood	-12.3365
▁Foreign	-12.3366
▁lacklust	-12.3367
sacrific	-12.3368
▁nostalgi	-12.3368
▁cohesi	-12.3369
▁anticipat	-12.3372
sibly	-12.3373
RRIBLE	-12.3373
▁thematic	-12.3373
▁nausea	-12.3375
semblance	-12.3377
UCK	-12.3377
▁avail	-12.3378
deemed	-12.3379
eginning	-12.3379
eautiful	-12.3379
rivate	-12.3379
▁convers	-12.3379
scribe	-12.3379
ategory	-12.3379
upposedly	-12.3379
efense	-12.338
ocumentary	-12.338
▁detect	-12.338
▁Advent	-12.338
pisode	-12.338
xtreme	-12.338
ketch	-12.338
elicit	-12.338
▁(196	-12.3381
▁sensation	-12.3381
OOOOO	-12.3381
Unspeak	-12.3381
▁Avenger	-12.3381
▁Excellen	-12.3381
▁Morocc	-12.3381
▁cockroach	-12.3381
▁conservat	-12.3381
▁intermittent	-12.3381
▁jewish	-12.3381
▁perennially	-12.3381
▁platitud	-12.3381
▁spontaneous	-12.3381
ABLE	-12.3381
Animator	-12.3381
Bizarre	-12.3381
Chapelle	-12.3381
Critters	-12.3381
Elephant	-12.3381
Flashback	-12.3381
Governor	-12.3381
Gyllenhaal	-12.3381
Hatchet	-12.3381
Joaqui	-12.3381
Kristofferson	-12.3381
Perfect	-12.3381
Platoon	-12.3381
Traffic	-12.3381
Written	-12.3381
activist	-12.3381
biographies	-12.3381
climatic	-12.3381
confidence	-12.3381
ertificate	-12.3381
flamethrower	-12.3381
imultaneously	-12.3381
malgam	-12.3381
minators	-12.3381
mplications	-12.3381
ological	-12.3381
ophile	-12.3381
podge	-12.3381
repugnant	-12.3381
reservation	-12.3381
ristocracy	-12.3381
}	-12.3381
	-12.3381
▁1983	-12.3381
▁1989	-12.3381
▁1997	-12.3381
▁24/7	-12.3381
▁7/11	-12.3381
▁ACTUAL	-12.3381
▁ALERT	-12.3381
▁AROUND	-12.3381
▁Aurora	-12.3381
▁Auteuil	-12.3381
▁Bachchan	-12.3381
▁Balderson	-12.3381
▁Beethoven	-12.3381
▁Bucharest	-12.3381
▁Buscemi	-12.3381
▁Ceremony	-12.3381
▁Cleaner	-12.3381
▁Collection	-12.3381
▁Convention	-12.3381
▁Coscarelli	-12.3381
▁Criminal	-12.3381
▁Deneuve	-12.3381
▁Dennehy	-12.3381
▁Development	-12.3381
▁Disappear	-12.3381
▁EARTH	-12.3381
▁ESPN	-12.3381
▁Eckhart	-12.3381
▁Edinburgh	-12.3381
▁Eleniak	-12.3381
▁Entertainer	-12.3381
▁Examiner	-12.3381
▁Examples	-12.3381
▁FRONT	-12.3381
▁FUNNY	-12.3381
▁Fingerling	-12.3381
▁Flavia	-12.3381
▁François	-12.3381
▁GEEK	-12.3381
▁GREEN	-12.3381
▁Gedran	-12.3381
▁Gittai	-12.3381
▁Goldthwait	-12.3381
▁Greengrass	-12.3381
▁Grenier	-12.3381
▁Grisham	-12.3381
▁Haiduk	-12.3381
▁Hasselhof	-12.3381
▁Hopkins	-12.3381
▁Isabella	-12.3381
▁Islamic	-12.3381
▁Jaclyn	-12.3381
▁January	-12.3381
▁KIND	-12.3381
▁Kansas	-12.3381
▁Karpathy	-12.3381
▁Katrina	-12.3381
▁Leconte	-12.3381
▁Lithgow	-12.3381
▁Lolita	-12.3381
▁Lugosi	-12.3381
▁Macbeth	-12.3381
▁Magdalene	-12.3381
▁Malkovich	-12.3381
▁McGinley	-12.3381
▁McGow	-12.3381
▁McGuff	-12.3381
▁McMurt	-12.3381
▁Melbourne	-12.3381
▁Miyazaki	-12.3381
▁Moscow	-12.3381
▁Muslim	-12.3381
▁Mwanza	-12.3381
▁Naqoyqatsi	-12.3381
▁Nebraska	-12.3381
▁Nielsen	-12.3381
▁Occasionally	-12.3381
▁Patriot	-12.3381
▁Potemkin	-12.3381
▁Predictably	-12.3381
▁Producer	-12.3381
▁Production	-12.3381
▁Project	-12.3381
▁Pumpkinhead	-12.3381
▁Queirós	-12.3381
▁RINGU	-12.3381
▁ROCK	-12.3381
▁Railsback	-12.3381
▁Rapaport	-12.3381
▁Rothbart	-12.3381
▁Ryoko	-12.3381
▁SCREEN	-12.3381
▁SOLDIERS	-12.3381
▁Sabbath	-12.3381
▁Sarandon	-12.3381
▁Schenke	-12.3381
▁Schijf	-12.3381
▁Scrimm	-12.3381
▁Seattle	-12.3381
▁Senator	-12.3381
▁Seymour	-12.3381
▁Singapore	-12.3381
▁Slugs	-12.3381
▁THINK	-12.3381
▁Thersites	-12.3381
▁Tibbs	-12.3381
▁Translation	-12.3381
▁UNDER	-12.3381
▁Venezuela	-12.3381
▁Verghese	-12.3381
▁Verhoeven	-12.3381
▁Waltz	-12.3381
▁Wilki	-12.3381
▁XXX	-12.3381
▁Yankee	-12.3381
▁ZOMBIE	-12.3381
▁acquaintances	-12.3381
▁activity	-12.3381
▁alphabet	-12.3381
▁amputation	-12.3381
▁appalled	-12.3381
▁applica	-12.3381
▁aspirations	-12.3381
▁attorney	-12.3381
▁brothel	-12.3381
▁calculations	-12.3381
▁calibre	-12.3381
▁captioning	-12.3381
▁catalogue	-12.3381
▁catastroph	-12.3381
▁categories	-12.3381
▁cemetery	-12.3381
▁chaotic	-12.3381
▁chauvinist	-12.3381
▁chocolate	-12.3381
▁clunker	-12.3381
▁cocaine	-12.3381
▁complement	-12.3381
▁condescending	-12.3381
▁congratulat	-12.3381
▁connoisseur	-12.3381
▁conspirator	-12.3381
▁continent	-12.3381
▁corporation	-12.3381
▁creepier	-12.3381
▁critique	-12.3381
▁cryogenics	-12.3381
▁culprit	-12.3381
▁cynicism	-12.3381
▁dazzl	-12.3381
▁delinquents	-12.3381
▁delusional	-12.3381
▁demographic	-12.3381
▁denominator	-12.3381
▁denouement	-12.3381
▁deprav	-12.3381
▁diabolical	-12.3381
▁diamond	-12.3381
▁dilemma	-12.3381
▁disciple	-12.3381
▁discrimination	-12.3381
▁dispens	-12.3381
▁dizzy	-12.3381
▁domestic	-12.3381
▁dungeon	-12.3381
▁emperor	-12.3381
▁enforcement	-12.3381
▁engender	-12.3381
▁epidemic	-12.3381
▁epitom	-12.3381
▁expelled	-12.3381
▁exploding	-12.3381
▁fabric	-12.3381
▁fantasies	-12.3381
▁flourish	-12.3381
▁furniture	-12.3381
▁gambling	-12.3381
▁grenade	-12.3381
▁heartstrings	-12.3381
▁helmet	-12.3381
▁hodge	-12.3381
▁homesteaders	-12.3381
▁hunchback	-12.3381
▁hurricane	-12.3381
▁indifference	-12.3381
▁infomercial	-12.3381
▁infuriat	-12.3381
▁ingenious	-12.3381
▁innuendo	-12.3381
▁insecure	-12.3381
▁insufferable	-12.3381
▁intercourse	-12.3381
▁intricate	-12.3381
▁intrude	-12.3381
▁irresponsible	-12.3381
▁irritation	-12.3381
▁juggl	-12.3381
▁landlord	-12.3381
▁luggage	-12.3381
▁machismo	-12.3381
▁manipulative	-12.3381
▁masculinity	-12.3381
▁maximum	-12.3381
▁melancholy	-12.3381
▁mercenary	-12.3381
▁metaphor	-12.3381
▁mockumentary	-12.3381
▁moustache	-12.3381
▁multitude	-12.3381
▁nauseum	-12.3381
▁nephew	-12.3381
▁occurrence	-12.3381
▁octopus	-12.3381
▁oxygen	-12.3381
▁paragraph	-12.3381
▁piranha	-12.3381
▁platinum	-12.3381
▁policy	-12.3381
▁politicians	-12.3381
▁precaution	-12.3381
▁primitive	-12.3381
▁prosecut	-12.3381
▁prosthetics	-12.3381
▁provoke	-12.3381
▁publishe	-12.3381
▁pudding	-12.3381
▁puerile	-12.3381
▁puzzling	-12.3381
▁rearranged	-12.3381
▁rehabilitated	-12.3381
▁relevant	-12.3381
▁reluctant	-12.3381
▁rendition	-12.3381
▁retelling	-12.3381
▁revisionist	-12.3381
▁rhythm	-12.3381
▁sabotage	-12.3381
▁satirical	-12.3381
▁satisfaction	-12.3381
▁scantily	-12.3381
▁sculpture	-12.3381
▁sensibilit	-12.3381
▁sensual	-12.3381
▁shriek	-12.3381
▁shuffling	-12.3381
▁silhouette	-12.3381
▁silicon	-12.3381
▁silliness	-12.3381
▁soooooo	-12.3381
▁spectacle	-12.3381
▁spectator	-12.3381
▁speleologist	-12.3381
▁statuette	-12.3381
▁suffice	-12.3381
▁sweetheart	-12.3381
▁syndicate	-12.3381
▁synonymous	-12.3381
▁technician	-12.3381
▁telegraph	-12.3381
▁telekinetic	-12.3381
▁throttle	-12.3381
▁transplant	-12.3381
▁trappings	-12.3381
▁trollop	-12.3381
▁udders	-12.3381
▁uncertain	-12.3381
▁uncontrollabl	-12.3381
▁underestimate	-12.3381
▁underpopulated	-12.3381
▁understatement	-12.3381
▁uneasy	-12.3381
▁unexciting	-12.3381
▁unlucky	-12.3381
▁unravel	-12.3381
▁volunteer	-12.3381
▁voodoo	-12.3381
▁vulnerab	-12.3381
▁watermelon	-12.3381
▁yield	-12.3381
Coronado	-12.3381
Emraan	-12.3381
Miracle	-12.3381
hahaha	-12.3381
mitigat	-12.3381
oblivio	-12.3381
ordinar	-12.3381
▁AWFUL	-12.3381
▁Bebble	-12.3381
▁Chaplin	-12.3381
▁LAME	-12.3381
▁Mockingbird	-12.3381
▁OVER	-12.3381
▁PARTY	-12.3381
▁SCRAM	-12.3381
▁SEANCE	-12.3381
▁Salmon	-12.3381
▁Scamp	-12.3381
▁Vancouver	-12.3381
▁Wharton	-12.3381
▁[1946]	-12.3381
▁aficionado	-12.3381
▁ancestor	-12.3381
▁dispatch	-12.3381
▁embryo	-12.3381
▁fugitive	-12.3381
▁gadget	-12.3381
▁incomparabl	-12.3381
▁redempti	-12.3381
▁salvage	-12.3381
▁senior	-12.3381
▁slayer	-12.3381
▁speculati	-12.3381
▁undergarment	-12.3381
***************	-12.3381
surveillance	-12.3381
tabloid	-12.3381
▁(1996)	-12.3381
▁(2004)	-12.3381
▁Addison	-12.3381
▁Archive	-12.3381
▁Assante	-12.3381
▁Bloodstone	-12.3381
▁COOL	-12.3381
▁Craven	-12.3381
▁Darnell	-12.3381
▁Duncan	-12.3381
▁Fragata	-12.3381
▁Kinski	-12.3381
▁Koyaanisq	-12.3381
▁Kronk	-12.3381
▁Letterman	-12.3381
▁Reagan	-12.3381
▁Straight	-12.3381
▁Sykes	-12.3381
▁Teenage	-12.3381
▁Temple	-12.3381
▁Thurman	-12.3381
▁Tokyo	-12.3381
▁Trumbo	-12.3381
▁WANT	-12.3381
▁accelerat	-12.3381
▁advisor	-12.3381
▁ambitious	-12.3381
▁apprais	-12.3381
▁bloodletting	-12.3381
▁burden	-12.3381
▁cocktail	-12.3381
▁constipat	-12.3381
▁cretin	-12.3381
▁disrespect	-12.3381
▁dreari	-12.3381
▁extraneous	-12.3381
▁frigg	-12.3381
▁gesture	-12.3381
▁guru	-12.3381
▁hulking	-12.3381
▁impaired	-12.3381
▁insects	-12.3381
▁jumble	-12.3381
▁laboured	-12.3381
▁mortified	-12.3381
▁obtained	-12.3381
▁peppy	-12.3381
▁sausage	-12.3381
▁savior	-12.3381
▁scissors	-12.3381
▁sweeping	-12.3381
▁testament	-12.3381
▁vapid	-12.3381
▁videotape	-12.3381
Folk	-12.3381
crucifix	-12.3381
▁BAND	-12.3381
▁Brigg	-12.3381
▁Cheadle	-12.3381
▁Daughter	-12.3381
▁Giallo	-12.3381
▁Sheldon	-12.3381
▁candidate	-12.3381
▁cronies	-12.3381
▁crooked	-12.3381
▁dignity	-12.3381
▁dildo	-12.3381
▁embark	-12.3381
▁glutton	-12.3381
▁harbor	-12.3381
▁indecipherable	-12.3381
▁justification	-12.3381
▁mastermind	-12.3381
▁prolonged	-12.3381
▁puking	-12.3381
▁squeal	-12.3381
▁violin	-12.3381
▁williams	-12.3381
boggl	-12.3381
mercifully	-12.3381
tournament	-12.3381
ü	-12.3381
▁Amazing	-12.3381
▁Bovon	-12.3381
▁Brief	-12.3381
▁Bruck	-12.3381
▁Credit	-12.3381
▁Geek	-12.3381
▁Hitler	-12.3381
▁Kalidor	-12.3381
▁PPV	-12.3381
▁Quo	-12.3381
▁Raido	-12.3381
▁Regardless	-12.3381
▁SAND	-12.3381
▁Trivett	-12.3381
▁brainwash	-12.3381
▁hesitation	-12.3381
▁overwrought	-12.3381
▁prud	-12.3381
▁psyche	-12.3381
▁rehash	-12.3381
▁sparse	-12.3381
▁verdict	-12.3381
meister	-12.3381
onymous	-12.3381
▁Blake	-12.3381
▁Cooper	-12.3381
▁Dustin	-12.3381
▁TMN	-12.3381
▁bleeding	-12.3381
▁phant	-12.3381
▁phase	-12.3381
▁treach	-12.3381
▁vault	-12.3381
PLANE	-12.3381
RAIN	-12.3381
▁#2	-12.3381
▁Claus	-12.3381
▁Slasher	-12.3381
▁patrons	-12.3381
▁uninvolving	-12.3381
arathon	-12.3381
mischief	-12.3381
▁Collins	-12.3381
▁cheesi	-12.3381
Harvard	-12.3381
▁Cohen	-12.3381
▁MAG	-12.3381
▁MAY	-12.3381
▁Orange	-12.3381
▁Warrior	-12.3381
▁Westwing	-12.3381
▁closure	-12.3381
▁collaborati	-12.3381
▁conceal	-12.3381
▁dictat	-12.3381
▁integrate	-12.3381
▁snowballs	-12.3381
▁thrive	-12.3381
▁Clara	-12.3381
▁Heaven	-12.3381
▁Xena	-12.3381
▁balloon	-12.3381
▁swordsmen	-12.3381
Eastenders	-12.3381
OCA	-12.3381
▁CEO	-12.3381
▁LDS	-12.3381
▁LSD	-12.3381
▁costuming	-12.3381
▁hobo	-12.3381
▁manifest	-12.3381
▁tedium	-12.3381
▁Elwes	-12.3381
▁gamble	-12.3381
▁ravag	-12.3381
bearded	-12.3381
▁Cutter	-12.3381
▁Tube	-12.3381
▁bicker	-12.3381
▁bleak	-12.3381
▁dismay	-12.3381
▁dysfunction	-12.3381
▁eyebrows	-12.3381
pods	-12.3381
▁commend	-12.3381
▁diaper	-12.3381
▁knit	-12.3381
▁spear	-12.3381
▁Secor	-12.3381
▁Steele	-12.3381
▁carnage	-12.3381
▁Andersson	-12.3381
▁Motors	-12.3381
▁gaudy	-12.3381
▁omni	-12.3381
▁untouch	-12.3381
palabra	-12.3381
▁Alexander	-12.3381
▁Surprisingly	-12.3381
▁homeschooler	-12.3381
▁electronic	-12.3381
▁collapse	-12.3381
ophie	-12.3381
▁riff	-12.3381
▁submit	-12.3381
leeze	-12.3381
▁Bucky	-12.3381
▁Holmes	-12.3381
▁(1966)	-12.3381
▁Malone	-12.3381
▁detour	-12.3381
▁worm	-12.3381
▁MIN	-12.3381
▁Mediterr	-12.3381
▁mannerisms	-12.3381
▁Mendes	-12.3381
▁academ	-12.3381
▁barrel	-12.3381
▁occupy	-12.3381
▁Suz	-12.3381
▁abroad	-12.3381
▁inundat	-12.3381
▁Genesis	-12.3381
▁motto	-12.3381
▁reenactments	-12.3381
▁heiress	-12.3381
▁iota	-12.3381
▁isolated	-12.3381
Camille	-12.3381
Clockwork	-12.3381
▁Ebert	-12.3381
▁Gator	-12.3381
▁transpir	-12.3381
▁acquit	-12.3381
▁Merri	-12.3381
▁spelt	-12.3381
▁Rhys	-12.3381
▁Rosali	-12.3381
▁wrongdoer	-12.3381
HAI	-12.3381
▁organization	-12.3381
▁injure	-12.3381
▁Doyle	-12.3381
▁Gilbert	-12.3381
▁rustle	-12.3381
hwaa	-12.3381
▁Rubinstein	-12.3381
▁sperm	-12.3381
▁protest	-12.3381
▁carpet	-12.3381
▁circula	-12.3381
▁Grudge	-12.3381
▁resident	-12.3381
▁Pettet	-12.3381
▁swordsman	-12.3381
reviously	-12.3381
▁Jared	-12.3381
▁derive	-12.3381
enburg	-12.3381
aboutit	-12.3381
▁CIT	-12.3381
runken	-12.3381
extraterrestrial	-12.3381
AID	-12.3381
▁Spot	-12.3381
▁instruction	-12.3381
▁jocks	-12.3381
▁pissing	-12.3381
▁spree	-12.3381
9/10	-12.3382
mongering	-12.3382
▁Drugs	-12.3382
▁auction	-12.3382
▁skirt	-12.3382
burger	-12.3382
▁(1962)	-12.3382
▁slander	-12.3382
▁McKe	-12.3382
▁aloof	-12.3382
▁therapist	-12.3382
▁expens	-12.3382
▁Montana	-12.3382
▁commission	-12.3382
▁Early	-12.3382
▁Haines	-12.3382
hounds	-12.3382
▁Olivetti	-12.3382
▁Reese	-12.3382
▁cattle	-12.3382
▁Abel	-12.3382
Peppard	-12.3382
▁Gimmi	-12.3382
▁division	-12.3382
▁radiat	-12.3382
▁tomorrow	-12.3382
▁gruel	-12.3382
Nightbreed	-12.3382
▁[196	-12.3382
▁textbook	-12.3382
Message	-12.3382
▁underused	-12.3382
▁bandits	-12.3382
▁meager	-12.3382
▁Smart	-12.3382
▁1977	-12.3382
atador	-12.3382
▁Seuss	-12.3382
▁babbl	-12.3382
▁Chopper	-12.3382
SSI	-12.3382
▁expend	-12.3382
▁Wilb	-12.3382
▁cutouts	-12.3382
▁enigma	-12.3382
▁secular	-12.3382
▁Keys	-12.3382
▁ilk	-12.3382
▁titillati	-12.3382
audevill	-12.3382
▁feroci	-12.3382
▁reused	-12.3382
Sixth	-12.3382
▁splendo	-12.3382
▁laborious	-12.3382
▁resonate	-12.3382
orsaken	-12.3383
▁hetero	-12.3383
1/5	-12.3383
▁debt	-12.3383
▁vines	-12.3383
furnish	-12.3383
▁germ	-12.3383
▁alleged	-12.3383
▁Hagg	-12.3383
▁Clair	-12.3383
Clonus	-12.3383
▁unsuspe	-12.3383
▁Holden	-12.3383
▁violat	-12.3383
▁Pegg	-12.3383
▁Sucks	-12.3383
Useless	-12.3383
▁definat	-12.3383
▁fiddl	-12.3383
▁abyss	-12.3383
▁Thirt	-12.3383
▁incline	-12.3383
▁Hubb	-12.3383
▁Harbor	-12.3383
▁Forbes	-12.3384
▁Iowa	-12.3384
▁stride	-12.3384
umental	-12.3384
▁mags	-12.3384
▁Swing	-12.3384
▁Theatre	-12.3384
▁cremat	-12.3384
rpent	-12.3384
Writing	-12.3385
▁Excu	-12.3385
budged	-12.3385
▁1,000	-12.3385
▁fancie	-12.3385
Knock	-12.3385
▁HAVE	-12.3385
▁fertil	-12.3385
Isaac	-12.3386
hapless	-12.3387
elope	-12.3387
regain	-12.3387
▁interfere	-12.3388
POS	-12.3388
ontrast	-12.3389
pologise	-12.339
▁electi	-12.339
▁Horn	-12.3392
Visual	-12.3393
ornado	-12.3393
▁FLO	-12.3394
▁analog	-12.3395
mbass	-12.3396
imdb	-12.3396
▁stagger	-12.3397
▁daze	-12.3397
ssimo	-12.3399
▁undermine	-12.34
▁antholog	-12.34
▁EAT	-12.3402
▁Abhi	-12.3404
INN	-12.3407
indulgence	-12.3408
demand	-12.3409
▁Smok	-12.3409
▁soci	-12.3413
▁Clare	-12.3415
remors	-12.342
ertaining	-12.342
▁Litera	-12.3421
▁pilla	-12.3425
LOAD	-12.3427
▁Bike	-12.3428
Anyho	-12.3429
▁Angl	-12.343
artoon	-12.3432
▁LIV	-12.3437
▁masochis	-12.3441
Curly	-12.345
▁grizzl	-12.3453
▁merc	-12.3457
scrape	-12.3459
▁Pierr	-12.3461
Cult	-12.347
▁constr	-12.3476
Murdock	-12.3477
▁Henri	-12.3484
esthetically	-12.3484
▁reptil	-12.3488
1956	-12.3497
▁colla	-12.3531
organized	-12.3538
▁Brav	-12.3539
▁dramatiz	-12.3541
▁Gibb	-12.3542
1935	-12.3544
READ	-12.355
cloak	-12.3555
▁contemplat	-12.3578
ccupation	-12.3584
ighlander	-12.3609
1959	-12.362
Capri	-12.3702
▁heartbreak	-12.3735
Type	-12.3769
monious	-12.3795
civilis	-12.3819
flex	-12.388
equate	-12.3895
GIRLS	-12.393
Miner	-12.3952
ncredible	-12.3977
▁dru	-12.3998
polish	-12.404
uccessfully	-12.4078
▁Geral	-12.4081
believers	-12.4133
LAND	-12.4289
Brien	-12.432
Romance	-12.4349
glance	-12.4397
arcel	-12.4545
rticle	-12.4736
protective	-12.4813
dependent	-12.4844
impressive	-12.5028
partment	-12.5161
ISN	-12.5256
nsistent	-12.5296
spirited	-12.5444
▁remarkabl	-12.5479
discovered	-12.5518
▁submissi	-12.5578
▁privilege	-12.5588
Twiste	-12.5914
Exit	-12.6046
▁separat	-12.6108
▁smuggl	-12.6324
Counter	-12.6437
strange	-12.6454
▁reenact	-12.647
graphic	-12.6513
gator	-12.6528
▁substitut	-12.6662
Characters	-12.6784
Friends	-12.6862
Scenes	-12.6965
▁Laugh	-12.6988
▁participa	-12.7058
▁hypno	-12.7139
successful	-12.7193
discovery	-12.729
uniforms	-12.7361
1998	-12.7396
Witcher	-12.7421
▁GIRL	-12.7543
▁advocat	-12.7747
dissolve	-12.7942
believe	-12.8049
▁Stooge	-12.8108
ncient	-12.817
fraid	-12.8175
ttempt	-12.8178
▁univers	-12.8202
▁indulg	-12.8216
GHT	-12.8248
▁perpetua	-12.8256
rizzly	-12.8265
▁disturb	-12.8274
▁experienc	-12.8275
LOWE	-12.8285
▁bubbl	-12.8285
investigati	-12.8286
▁qui	-12.8292
shadow	-12.8308
ejected	-12.8313
▁terrify	-12.8316
Ernest	-12.8319
Harrison	-12.8319
Mongolian	-12.8319
Nobody	-12.8319
	-13.8327
å	-13.8387
	-13.8388
ê	-13.8389
£	-13.839
{	-13.8391
ã	-13.8392
́	-13.8393
~	-13.8394
[	-13.8395
